{
  "type": "bpe",
  "vocab_size": 2000,
  "vocab": {
    "<pad>": 0,
    "<unk>": 1,
    "<s>": 2,
    "</s>": 3,
    "<0x00>": 4,
    "<0x01>": 5,
    "<0x02>": 6,
    "<0x03>": 7,
    "<0x04>": 8,
    "<0x05>": 9,
    "<0x06>": 10,
    "<0x07>": 11,
    "<0x08>": 12,
    "<0x09>": 13,
    "<0x0A>": 14,
    "<0x0B>": 15,
    "<0x0C>": 16,
    "<0x0D>": 17,
    "<0x0E>": 18,
    "<0x0F>": 19,
    "<0x10>": 20,
    "<0x11>": 21,
    "<0x12>": 22,
    "<0x13>": 23,
    "<0x14>": 24,
    "<0x15>": 25,
    "<0x16>": 26,
    "<0x17>": 27,
    "<0x18>": 28,
    "<0x19>": 29,
    "<0x1A>": 30,
    "<0x1B>": 31,
    "<0x1C>": 32,
    "<0x1D>": 33,
    "<0x1E>": 34,
    "<0x1F>": 35,
    "<0x20>": 36,
    "<0x21>": 37,
    "<0x22>": 38,
    "<0x23>": 39,
    "<0x24>": 40,
    "<0x25>": 41,
    "<0x26>": 42,
    "<0x27>": 43,
    "<0x28>": 44,
    "<0x29>": 45,
    "<0x2A>": 46,
    "<0x2B>": 47,
    "<0x2C>": 48,
    "<0x2D>": 49,
    "<0x2E>": 50,
    "<0x2F>": 51,
    "<0x30>": 52,
    "<0x31>": 53,
    "<0x32>": 54,
    "<0x33>": 55,
    "<0x34>": 56,
    "<0x35>": 57,
    "<0x36>": 58,
    "<0x37>": 59,
    "<0x38>": 60,
    "<0x39>": 61,
    "<0x3A>": 62,
    "<0x3B>": 63,
    "<0x3C>": 64,
    "<0x3D>": 65,
    "<0x3E>": 66,
    "<0x3F>": 67,
    "<0x40>": 68,
    "<0x41>": 69,
    "<0x42>": 70,
    "<0x43>": 71,
    "<0x44>": 72,
    "<0x45>": 73,
    "<0x46>": 74,
    "<0x47>": 75,
    "<0x48>": 76,
    "<0x49>": 77,
    "<0x4A>": 78,
    "<0x4B>": 79,
    "<0x4C>": 80,
    "<0x4D>": 81,
    "<0x4E>": 82,
    "<0x4F>": 83,
    "<0x50>": 84,
    "<0x51>": 85,
    "<0x52>": 86,
    "<0x53>": 87,
    "<0x54>": 88,
    "<0x55>": 89,
    "<0x56>": 90,
    "<0x57>": 91,
    "<0x58>": 92,
    "<0x59>": 93,
    "<0x5A>": 94,
    "<0x5B>": 95,
    "<0x5C>": 96,
    "<0x5D>": 97,
    "<0x5E>": 98,
    "<0x5F>": 99,
    "<0x60>": 100,
    "<0x61>": 101,
    "<0x62>": 102,
    "<0x63>": 103,
    "<0x64>": 104,
    "<0x65>": 105,
    "<0x66>": 106,
    "<0x67>": 107,
    "<0x68>": 108,
    "<0x69>": 109,
    "<0x6A>": 110,
    "<0x6B>": 111,
    "<0x6C>": 112,
    "<0x6D>": 113,
    "<0x6E>": 114,
    "<0x6F>": 115,
    "<0x70>": 116,
    "<0x71>": 117,
    "<0x72>": 118,
    "<0x73>": 119,
    "<0x74>": 120,
    "<0x75>": 121,
    "<0x76>": 122,
    "<0x77>": 123,
    "<0x78>": 124,
    "<0x79>": 125,
    "<0x7A>": 126,
    "<0x7B>": 127,
    "<0x7C>": 128,
    "<0x7D>": 129,
    "<0x7E>": 130,
    "<0x7F>": 131,
    "<0x80>": 132,
    "<0x81>": 133,
    "<0x82>": 134,
    "<0x83>": 135,
    "<0x84>": 136,
    "<0x85>": 137,
    "<0x86>": 138,
    "<0x87>": 139,
    "<0x88>": 140,
    "<0x89>": 141,
    "<0x8A>": 142,
    "<0x8B>": 143,
    "<0x8C>": 144,
    "<0x8D>": 145,
    "<0x8E>": 146,
    "<0x8F>": 147,
    "<0x90>": 148,
    "<0x91>": 149,
    "<0x92>": 150,
    "<0x93>": 151,
    "<0x94>": 152,
    "<0x95>": 153,
    "<0x96>": 154,
    "<0x97>": 155,
    "<0x98>": 156,
    "<0x99>": 157,
    "<0x9A>": 158,
    "<0x9B>": 159,
    "<0x9C>": 160,
    "<0x9D>": 161,
    "<0x9E>": 162,
    "<0x9F>": 163,
    "<0xA0>": 164,
    "<0xA1>": 165,
    "<0xA2>": 166,
    "<0xA3>": 167,
    "<0xA4>": 168,
    "<0xA5>": 169,
    "<0xA6>": 170,
    "<0xA7>": 171,
    "<0xA8>": 172,
    "<0xA9>": 173,
    "<0xAA>": 174,
    "<0xAB>": 175,
    "<0xAC>": 176,
    "<0xAD>": 177,
    "<0xAE>": 178,
    "<0xAF>": 179,
    "<0xB0>": 180,
    "<0xB1>": 181,
    "<0xB2>": 182,
    "<0xB3>": 183,
    "<0xB4>": 184,
    "<0xB5>": 185,
    "<0xB6>": 186,
    "<0xB7>": 187,
    "<0xB8>": 188,
    "<0xB9>": 189,
    "<0xBA>": 190,
    "<0xBB>": 191,
    "<0xBC>": 192,
    "<0xBD>": 193,
    "<0xBE>": 194,
    "<0xBF>": 195,
    "<0xC0>": 196,
    "<0xC1>": 197,
    "<0xC2>": 198,
    "<0xC3>": 199,
    "<0xC4>": 200,
    "<0xC5>": 201,
    "<0xC6>": 202,
    "<0xC7>": 203,
    "<0xC8>": 204,
    "<0xC9>": 205,
    "<0xCA>": 206,
    "<0xCB>": 207,
    "<0xCC>": 208,
    "<0xCD>": 209,
    "<0xCE>": 210,
    "<0xCF>": 211,
    "<0xD0>": 212,
    "<0xD1>": 213,
    "<0xD2>": 214,
    "<0xD3>": 215,
    "<0xD4>": 216,
    "<0xD5>": 217,
    "<0xD6>": 218,
    "<0xD7>": 219,
    "<0xD8>": 220,
    "<0xD9>": 221,
    "<0xDA>": 222,
    "<0xDB>": 223,
    "<0xDC>": 224,
    "<0xDD>": 225,
    "<0xDE>": 226,
    "<0xDF>": 227,
    "<0xE0>": 228,
    "<0xE1>": 229,
    "<0xE2>": 230,
    "<0xE3>": 231,
    "<0xE4>": 232,
    "<0xE5>": 233,
    "<0xE6>": 234,
    "<0xE7>": 235,
    "<0xE8>": 236,
    "<0xE9>": 237,
    "<0xEA>": 238,
    "<0xEB>": 239,
    "<0xEC>": 240,
    "<0xED>": 241,
    "<0xEE>": 242,
    "<0xEF>": 243,
    "<0xF0>": 244,
    "<0xF1>": 245,
    "<0xF2>": 246,
    "<0xF3>": 247,
    "<0xF4>": 248,
    "<0xF5>": 249,
    "<0xF6>": 250,
    "<0xF7>": 251,
    "<0xF8>": 252,
    "<0xF9>": 253,
    "<0xFA>": 254,
    "<0xFB>": 255,
    "<0xFC>": 256,
    "<0xFD>": 257,
    "<0xFE>": 258,
    "<0xFF>": 259,
    "in": 260,
    "▁t": 261,
    "at": 262,
    "er": 263,
    "es": 264,
    "on": 265,
    "en": 266,
    "▁a": 267,
    "▁s": 268,
    "▁th": 269,
    "▁i": 270,
    "ing": 271,
    "re": 272,
    "▁c": 273,
    "an": 274,
    "▁w": 275,
    "▁b": 276,
    "▁m": 277,
    "▁o": 278,
    "ion": 279,
    "▁is": 280,
    "▁p": 281,
    "▁d": 282,
    "▁f": 283,
    "ou": 284,
    "▁I": 285,
    "▁the": 286,
    "ce": 287,
    "it": 288,
    "ar": 289,
    "or": 290,
    "▁A": 291,
    "om": 292,
    "▁e": 293,
    "al": 294,
    "▁T": 295,
    "he": 296,
    "▁Q": 297,
    "▁n": 298,
    "▁to": 299,
    "nd": 300,
    "▁in": 301,
    "ent": 302,
    "hat": 303,
    "ct": 304,
    "et": 305,
    "ot": 306,
    "ed": 307,
    "st": 308,
    "▁l": 309,
    "el": 310,
    "res": 311,
    "▁W": 312,
    "▁h": 313,
    "▁of": 314,
    "▁be": 315,
    "ow": 316,
    "▁The": 317,
    "ut": 318,
    "ation": 319,
    "ic": 320,
    "▁re": 321,
    "▁What": 322,
    "le": 323,
    "her": 324,
    "▁and": 325,
    "▁it": 326,
    "gh": 327,
    "▁di": 328,
    "ence": 329,
    "ly": 330,
    "im": 331,
    "ve": 332,
    "ess": 333,
    "▁not": 334,
    "ra": 335,
    "▁g": 336,
    "ter": 337,
    "▁y": 338,
    "is": 339,
    "▁ex": 340,
    "ol": 341,
    "il": 342,
    "▁-": 343,
    "▁u": 344,
    "ity": 345,
    "▁st": 346,
    "▁con": 347,
    "ur": 348,
    "ens": 349,
    "ap": 350,
    "as": 351,
    "ght": 352,
    "ul": 353,
    "ff": 354,
    "ate": 355,
    "▁or": 356,
    "ver": 357,
    "ro": 358,
    "▁wit": 359,
    "▁you": 360,
    "▁do": 361,
    "per": 362,
    "ight": 363,
    "▁res": 364,
    "atter": 365,
    "▁that": 366,
    "▁diff": 367,
    "um": 368,
    "qu": 369,
    "ind": 370,
    "▁on": 371,
    "▁with": 372,
    "ure": 373,
    "ch": 374,
    "▁S": 375,
    "ad": 376,
    "▁at": 377,
    "ction": 378,
    "▁me": 379,
    "▁are": 380,
    "▁r": 381,
    "est": 382,
    "▁mo": 383,
    "th": 384,
    "▁an": 385,
    "ld": 386,
    "▁per": 387,
    "omet": 388,
    "▁for": 389,
    "▁de": 390,
    "▁what": 391,
    "ir": 392,
    "ge": 393,
    "▁can": 394,
    "▁pres": 395,
    "▁tr": 396,
    "▁differ": 397,
    "os": 398,
    "▁than": 399,
    "▁li": 400,
    "▁sh": 401,
    "▁al": 402,
    "ain": 403,
    "▁fr": 404,
    "ci": 405,
    "▁but": 406,
    "and": 407,
    "ri": 408,
    "ay": 409,
    "▁wh": 410,
    "▁un": 411,
    "▁M": 412,
    "▁E": 413,
    "hing": 414,
    "here": 415,
    "ould": 416,
    "out": 417,
    "▁as": 418,
    "▁its": 419,
    "ness": 420,
    "em": 421,
    "▁sp": 422,
    "▁qu": 423,
    "▁sens": 424,
    "▁fe": 425,
    "se": 426,
    "ist": 427,
    "ience": 428,
    "▁they": 429,
    "▁im": 430,
    "▁my": 431,
    "▁exper": 432,
    "id": 433,
    "▁matter": 434,
    "ive": 435,
    "▁H": 436,
    "▁en": 437,
    "▁se": 438,
    "ions": 439,
    "ds": 440,
    "ect": 441,
    "▁experience": 442,
    "▁v": 443,
    "▁from": 444,
    "ble": 445,
    "ies": 446,
    "elf": 447,
    "od": 448,
    "ous": 449,
    "▁ne": 450,
    "▁pro": 451,
    "ther": 452,
    "pl": 453,
    "reat": 454,
    "▁It": 455,
    "▁int": 456,
    "▁com": 457,
    "▁wor": 458,
    "ace": 459,
    "▁N": 460,
    "▁feel": 461,
    "▁ev": 462,
    "▁B": 463,
    "omething": 464,
    "ru": 465,
    "▁being": 466,
    "▁different": 467,
    "▁k": 468,
    "ound": 469,
    "▁su": 470,
    "ach": 471,
    "war": 472,
    "▁this": 473,
    "am": 474,
    "etw": 475,
    "▁would": 476,
    "ime": 477,
    "ant": 478,
    "ding": 479,
    "▁C": 480,
    "nder": 481,
    "ning": 482,
    "▁something": 483,
    "ations": 484,
    "iv": 485,
    "ill": 486,
    "iz": 487,
    "ome": 488,
    "ough": 489,
    "art": 490,
    "ather": 491,
    "ces": 492,
    "ance": 493,
    "▁without": 494,
    "for": 495,
    "een": 496,
    "pt": 497,
    "etween": 498,
    "ig": 499,
    "age": 500,
    "▁How": 501,
    "▁between": 502,
    "ang": 503,
    "erg": 504,
    "▁under": 505,
    "▁where": 506,
    "▁present": 507,
    "▁state": 508,
    "og": 509,
    "▁O": 510,
    "▁dep": 511,
    "ward": 512,
    "ical": 513,
    "all": 514,
    "▁ch": 515,
    "▁try": 516,
    "ult": 517,
    "row": 518,
    "▁find": 519,
    "▁more": 520,
    "cess": 521,
    "▁D": 522,
    "us": 523,
    "attern": 524,
    "ke": 525,
    "ary": 526,
    "ear": 527,
    "les": 528,
    "▁he": 529,
    "▁other": 530,
    "▁cons": 531,
    "ating": 532,
    "imes": 533,
    "▁does": 534,
    "▁toward": 535,
    "com": 536,
    "rough": 537,
    "▁quest": 538,
    "ans": 539,
    "▁P": 540,
    "▁part": 541,
    "▁reson": 542,
    "▁pattern": 543,
    "hy": 544,
    "▁rather": 545,
    "ave": 546,
    "▁even": 547,
    "if": 548,
    "aps": 549,
    "one": 550,
    "▁ap": 551,
    "ck": 552,
    "ry": 553,
    "tain": 554,
    "▁no": 555,
    "▁one": 556,
    "pon": 557,
    "▁might": 558,
    "▁matters": 559,
    "▁sense": 560,
    "now": 561,
    "▁all": 562,
    "ture": 563,
    "▁through": 564,
    "▁exist": 565,
    "ell": 566,
    "ust": 567,
    "▁em": 568,
    "▁itself": 569,
    "ometimes": 570,
    "▁fi": 571,
    "▁att": 572,
    "▁car": 573,
    "bs": 574,
    "un": 575,
    "able": 576,
    "▁them": 577,
    "▁by": 578,
    "ne": 579,
    "ory": 580,
    "▁respon": 581,
    "▁has": 582,
    "gan": 583,
    "ak": 584,
    "op": 585,
    "ergy": 586,
    "ong": 587,
    "haps": 588,
    "our": 589,
    "▁shap": 590,
    "ention": 591,
    "▁creat": 592,
    "ese": 593,
    "ink": 594,
    "▁ac": 595,
    "ality": 596,
    "▁hum": 597,
    "ice": 598,
    "ves": 599,
    "▁cont": 600,
    "▁time": 601,
    "gg": 602,
    "▁these": 603,
    "oth": 604,
    "▁gra": 605,
    "▁difference": 606,
    "▁organ": 607,
    "▁perhaps": 608,
    "int": 609,
    "ip": 610,
    "▁tra": 611,
    "ew": 612,
    "ers": 613,
    "▁sensation": 614,
    "ment": 615,
    "▁sur": 616,
    "▁Sometimes": 617,
    "▁lo": 618,
    "very": 619,
    "▁sim": 620,
    "▁have": 621,
    "▁like": 622,
    "ated": 623,
    "▁their": 624,
    "▁fiel": 625,
    "▁hol": 626,
    "are": 627,
    "ab": 628,
    "▁F": 629,
    "▁some": 630,
    "▁we": 631,
    "plies": 632,
    "angu": 633,
    "▁po": 634,
    "ex": 635,
    "▁comp": 636,
    "wn": 637,
    "▁thing": 638,
    "anguage": 639,
    "▁field": 640,
    "form": 641,
    "▁gen": 642,
    "▁both": 643,
    "ort": 644,
    "▁energy": 645,
    "oc": 646,
    "▁know": 647,
    "lect": 648,
    "▁dist": 649,
    "▁think": 650,
    "▁rel": 651,
    "ruct": 652,
    "ep": 653,
    "stand": 654,
    "▁L": 655,
    "der": 656,
    "▁am": 657,
    "gin": 658,
    "▁My": 659,
    "uma": 660,
    "▁sy": 661,
    "▁rem": 662,
    "▁language": 663,
    "▁sc": 664,
    "▁const": 665,
    "▁presence": 666,
    "ensity": 667,
    "▁attention": 668,
    "ame": 669,
    "olut": 670,
    "ress": 671,
    "low": 672,
    "ner": 673,
    "▁depen": 674,
    "fer": 675,
    "▁own": 676,
    "▁space": 677,
    "▁point": 678,
    "esc": 679,
    "rib": 680,
    "▁each": 681,
    "▁R": 682,
    "cious": 683,
    "▁grow": 684,
    "sp": 685,
    "▁carry": 686,
    "▁questions": 687,
    "so": 688,
    "▁when": 689,
    "▁mean": 690,
    "▁human": 691,
    "▁imp": 692,
    "▁perce": 693,
    "ast": 694,
    "▁ar": 695,
    "ely": 696,
    "▁pl": 697,
    "▁understand": 698,
    "▁cap": 699,
    "▁who": 700,
    "ork": 701,
    "ature": 702,
    "▁fra": 703,
    "act": 704,
    "face": 705,
    "▁No": 706,
    "▁act": 707,
    "ought": 708,
    "ertain": 709,
    "▁patterns": 710,
    "vel": 711,
    "▁how": 712,
    "▁shapes": 713,
    "otion": 714,
    "▁over": 715,
    "not": 716,
    "▁long": 717,
    "▁intensity": 718,
    "uth": 719,
    "▁Y": 720,
    "▁words": 721,
    "▁inner": 722,
    "▁They": 723,
    "▁dire": 724,
    "arm": 725,
    "▁thought": 726,
    "▁cannot": 727,
    "icult": 728,
    "ular": 729,
    "▁partic": 730,
    "▁tex": 731,
    "▁surface": 732,
    "ack": 733,
    "olog": 734,
    "▁light": 735,
    "▁difficult": 736,
    "▁response": 737,
    "▁your": 738,
    "▁spe": 739,
    "▁le": 740,
    "▁yet": 741,
    "▁meet": 742,
    "own": 743,
    "▁hel": 744,
    "▁Th": 745,
    "ible": 746,
    "als": 747,
    "oss": 748,
    "ign": 749,
    "ient": 750,
    "▁vi": 751,
    "arth": 752,
    "▁resour": 753,
    "ving": 754,
    "▁wind": 755,
    "▁app": 756,
    "escrib": 757,
    "▁notice": 758,
    "ond": 759,
    "▁lif": 760,
    "▁dis": 761,
    "▁into": 762,
    "▁too": 763,
    "▁down": 764,
    "▁tell": 765,
    "ater": 766,
    "hip": 767,
    "▁ab": 768,
    "ore": 769,
    "ays": 770,
    "▁help": 771,
    "▁ra": 772,
    "▁kind": 773,
    "▁rec": 774,
    "▁same": 775,
    "▁begin": 776,
    "ass": 777,
    "ension": 778,
    "▁conscious": 779,
    "ange": 780,
    "ere": 781,
    "▁exp": 782,
    "▁unc": 783,
    "▁inter": 784,
    "▁j": 785,
    "▁direct": 786,
    "ility": 787,
    "lo": 788,
    "app": 789,
    "inction": 790,
    "▁depth": 791,
    "ine": 792,
    "izes": 793,
    "▁action": 794,
    "▁cle": 795,
    "iness": 796,
    "red": 797,
    "ates": 798,
    "▁read": 799,
    "ears": 800,
    "escribe": 801,
    "bser": 802,
    "ky": 803,
    "ful": 804,
    "▁call": 805,
    "fect": 806,
    "▁Or": 807,
    "▁life": 808,
    "▁obser": 809,
    "ological": 810,
    "▁There": 811,
    "▁process": 812,
    "ane": 813,
    "▁texture": 814,
    "▁care": 815,
    "ationship": 816,
    "iny": 817,
    "▁quality": 818,
    "iver": 819,
    "▁ref": 820,
    "▁differently": 821,
    "thing": 822,
    "▁meaning": 823,
    "▁someone": 824,
    "▁Earth": 825,
    "▁pr": 826,
    "▁relationship": 827,
    "▁(": 828,
    "ics": 829,
    "ests": 830,
    "▁requ": 831,
    "asc": 832,
    "▁should": 833,
    "otional": 834,
    "fort": 835,
    "▁Not": 836,
    "▁trans": 837,
    "formation": 838,
    "itu": 839,
    "▁tension": 840,
    "ously": 841,
    "▁bi": 842,
    "ose": 843,
    "▁longer": 844,
    "▁bor": 845,
    "▁particular": 846,
    "irc": 847,
    "▁Describe": 848,
    "rating": 849,
    "▁every": 850,
    "▁circ": 851,
    "▁happ": 852,
    "hether": 853,
    "▁grasp": 854,
    "▁capture": 855,
    "▁Time": 856,
    "cessary": 857,
    "ial": 858,
    "▁witness": 859,
    "▁may": 860,
    "uring": 861,
    "▁water": 862,
    "▁years": 863,
    "lex": 864,
    "thm": 865,
    "ition": 866,
    "▁uncertain": 867,
    "hythm": 868,
    "orning": 869,
    "▁grows": 870,
    "▁imper": 871,
    "▁directly": 872,
    "▁ang": 873,
    "▁import": 874,
    "▁Yet": 875,
    "▁perceive": 876,
    "ons": 877,
    "▁cl": 878,
    "▁tight": 879,
    "▁trauma": 880,
    "ars": 881,
    "▁rhythm": 882,
    "▁orient": 883,
    "du": 884,
    "rop": 885,
    "▁offer": 886,
    "resh": 887,
    "▁In": 888,
    "ite": 889,
    "▁mem": 890,
    "▁bas": 891,
    "▁necessary": 892,
    "▁biological": 893,
    "ances": 894,
    "▁evening": 895,
    "▁imperfect": 896,
    "ade": 897,
    "soci": 898,
    "▁becom": 899,
    "comfort": 900,
    "ved": 901,
    "ift": 902,
    "▁depending": 903,
    "▁orientation": 904,
    "▁grasping": 905,
    "▁beginning": 906,
    "▁see": 907,
    "▁form": 908,
    "ultane": 909,
    "▁during": 910,
    "rugg": 911,
    "▁work": 912,
    "▁requi": 913,
    "▁simultane": 914,
    "▁question": 915,
    "▁consciousness": 916,
    "ag": 917,
    "▁strugg": 918,
    "▁important": 919,
    "▁about": 920,
    "▁holding": 921,
    "▁simultaneously": 922,
    "▁sugg": 923,
    "▁difficulty": 924,
    "▁One": 925,
    "▁tightly": 926,
    "▁calls": 927,
    "comfortable": 928,
    "▁col": 929,
    "▁genu": 930,
    "▁uncomfortable": 931,
    "▁resources": 932,
    "▁suggests": 933,
    "▁frust": 934,
    "▁out": 935,
    "▁solut": 936,
    "adi": 937,
    "end": 938,
    "stem": 939,
    "▁day": 940,
    "ascin": 941,
    "▁fascin": 942,
    "▁distinction": 943,
    "▁fresh": 944,
    "▁readiness": 945,
    "▁angles": 946,
    "▁associ": 947,
    "▁St": 948,
    "▁seem": 949,
    "unction": 950,
    "rut": 951,
    "▁view": 952,
    "▁alloc": 953,
    "▁associations": 954,
    "ue": 955,
    "cept": 956,
    "▁fram": 957,
    "rutiny": 958,
    "▁scrutiny": 959,
    "▁organizes": 960,
    "▁borrow": 961,
    "▁allocated": 962,
    "cy": 963,
    "▁so": 964,
    "▁abs": 965,
    "▁construct": 966,
    "ber": 967,
    "▁Each": 968,
    "▁implies": 969,
    "▁harm": 970,
    "▁situ": 971,
    "nection": 972,
    "▁situation": 973,
    "▁struggles": 974,
    "▁frustrating": 975,
    "▁remain": 976,
    "▁applies": 977,
    "ework": 978,
    "▁moder": 979,
    "▁reflect": 980,
    "▁framework": 981,
    "▁witnessed": 982,
    "▁ag": 983,
    "▁observe": 984,
    "urky": 985,
    "▁murky": 986,
    "▁memory": 987,
    "▁fascinating": 988,
    "▁imperfectly": 989,
    "▁viewed": 990,
    "▁winding": 991,
    "▁solutions": 992,
    "fin": 993,
    "ich": 994,
    "ures": 995,
    "▁contin": 996,
    "▁creates": 997,
    "verness": 998,
    "▁cleverness": 999,
    "ounds": 1000,
    "▁resonance": 1001,
    "▁cur": 1002,
    "▁co": 1003,
    "▁self": 1004,
    "▁tem": 1005,
    "▁peri": 1006,
    "▁period": 1007,
    "▁Morning": 1008,
    "▁function": 1009,
    "▁resonances": 1010,
    "ony": 1011,
    "▁Be": 1012,
    "adian": 1013,
    "▁basis": 1014,
    "▁circadian": 1015,
    "▁But": 1016,
    "▁complex": 1017,
    "icity": 1018,
    "ual": 1019,
    "ty": 1020,
    "hem": 1021,
    "oun": 1022,
    "▁Wh": 1023,
    "av": 1024,
    "oment": 1025,
    "ree": 1026,
    "▁information": 1027,
    "▁us": 1028,
    "vers": 1029,
    "▁emotional": 1030,
    "ivation": 1031,
    "ft": 1032,
    "▁moderate": 1033,
    "ands": 1034,
    "ail": 1035,
    "▁change": 1036,
    "▁mind": 1037,
    "▁only": 1038,
    "ith": 1039,
    "ways": 1040,
    "ath": 1041,
    "ogn": 1042,
    "▁moment": 1043,
    "▁pre": 1044,
    "ption": 1045,
    "▁speci": 1046,
    "▁harmony": 1047,
    "yond": 1048,
    "ening": 1049,
    "igh": 1050,
    "▁univer": 1051,
    "ark": 1052,
    "▁load": 1053,
    "▁G": 1054,
    "▁poss": 1055,
    "sw": 1056,
    "▁man": 1057,
    "▁beyond": 1058,
    "▁bod": 1059,
    "ib": 1060,
    "▁requires": 1061,
    "▁elect": 1062,
    "▁By": 1063,
    "ide": 1064,
    "▁wa": 1065,
    "▁answ": 1066,
    "▁which": 1067,
    "rain": 1068,
    "eness": 1069,
    "▁shift": 1070,
    "▁remains": 1071,
    "led": 1072,
    "▁feeling": 1073,
    "ros": 1074,
    "▁sign": 1075,
    "▁des": 1076,
    "ider": 1077,
    "ire": 1078,
    "▁universe": 1079,
    "hys": 1080,
    "▁When": 1081,
    "▁press": 1082,
    "▁world": 1083,
    "▁ph": 1084,
    "▁bec": 1085,
    "▁nothing": 1086,
    "▁consider": 1087,
    "rit": 1088,
    "urs": 1089,
    "▁breat": 1090,
    "▁others": 1091,
    "ull": 1092,
    "und": 1093,
    "▁truth": 1094,
    "ac": 1095,
    "▁V": 1096,
    "get": 1097,
    "▁always": 1098,
    "▁electr": 1099,
    "▁new": 1100,
    "ting": 1101,
    "▁was": 1102,
    "illions": 1103,
    "▁Tra": 1104,
    "▁tone": 1105,
    "its": 1106,
    "▁Some": 1107,
    "▁lear": 1108,
    "▁made": 1109,
    "ax": 1110,
    "▁will": 1111,
    "▁ro": 1112,
    "akes": 1113,
    "▁Trauma": 1114,
    "▁genuin": 1115,
    "▁connection": 1116,
    "▁need": 1117,
    "▁gr": 1118,
    "▁flow": 1119,
    "▁genuinely": 1120,
    "▁ad": 1121,
    "ross": 1122,
    "▁understanding": 1123,
    "▁er": 1124,
    "ffect": 1125,
    "ie": 1126,
    "ris": 1127,
    "▁pressure": 1128,
    "cient": 1129,
    "▁system": 1130,
    "▁continu": 1131,
    "erm": 1132,
    "▁Re": 1133,
    "▁ent": 1134,
    "▁This": 1135,
    "▁aw": 1136,
    "▁num": 1137,
    "▁emerg": 1138,
    "▁level": 1139,
    "▁body": 1140,
    "▁resonate": 1141,
    "▁comes": 1142,
    "▁things": 1143,
    "ox": 1144,
    "urn": 1145,
    "▁phys": 1146,
    "ood": 1147,
    "ceed": 1148,
    "nect": 1149,
    "▁any": 1150,
    "▁whether": 1151,
    "hes": 1152,
    "ors": 1153,
    "ability": 1154,
    "▁struct": 1155,
    "aut": 1156,
    "▁bl": 1157,
    "▁spot": 1158,
    "ok": 1159,
    "self": 1160,
    "perature": 1161,
    "▁inv": 1162,
    "▁mat": 1163,
    "▁rep": 1164,
    "▁gener": 1165,
    "▁dri": 1166,
    "▁lar": 1167,
    "▁str": 1168,
    "▁everything": 1169,
    "tern": 1170,
    "ering": 1171,
    "▁threat": 1172,
    "▁fre": 1173,
    "olution": 1174,
    "▁across": 1175,
    "ract": 1176,
    "▁par": 1177,
    "ile": 1178,
    "ll": 1179,
    "▁simp": 1180,
    "ron": 1181,
    "▁val": 1182,
    "imate": 1183,
    "▁pers": 1184,
    "▁happens": 1185,
    "▁op": 1186,
    "hemat": 1187,
    "▁deep": 1188,
    "▁recogn": 1189,
    "ix": 1190,
    "▁absence": 1191,
    "de": 1192,
    "▁Em": 1193,
    "▁real": 1194,
    "▁We": 1195,
    "▁sm": 1196,
    "▁met": 1197,
    "▁lim": 1198,
    "▁bound": 1199,
    "▁most": 1200,
    "gen": 1201,
    "ten": 1202,
    "ressed": 1203,
    "uil": 1204,
    "▁oce": 1205,
    "▁Every": 1206,
    "▁At": 1207,
    "ilence": 1208,
    "elt": 1209,
    "▁now": 1210,
    "▁back": 1211,
    "aking": 1212,
    "▁connect": 1213,
    "▁ben": 1214,
    "▁gap": 1215,
    "▁sym": 1216,
    "▁cre": 1217,
    "▁sun": 1218,
    "andom": 1219,
    "▁Being": 1220,
    ").": 1221,
    "▁existence": 1222,
    "▁weight": 1223,
    "▁sec": 1224,
    "ivity": 1225,
    "au": 1226,
    "▁With": 1227,
    "▁exists": 1228,
    "▁blo": 1229,
    "▁becomes": 1230,
    "adox": 1231,
    "▁ind": 1232,
    "den": 1233,
    "▁accept": 1234,
    "▁knowing": 1235,
    "▁also": 1236,
    "aces": 1237,
    "ential": 1238,
    "▁there": 1239,
    "rent": 1240,
    "▁air": 1241,
    "▁sol": 1242,
    "ization": 1243,
    "ise": 1244,
    "ific": 1245,
    "ope": 1246,
    "▁That": 1247,
    "▁auth": 1248,
    "ict": 1249,
    "▁En": 1250,
    "▁high": 1251,
    "▁infin": 1252,
    "leas": 1253,
    "▁hand": 1254,
    "ject": 1255,
    "ling": 1256,
    "▁Con": 1257,
    "▁just": 1258,
    "▁remem": 1259,
    "pose": 1260,
    "ection": 1261,
    "▁small": 1262,
    "▁nature": 1263,
    "wareness": 1264,
    "▁An": 1265,
    "ster": 1266,
    "▁produ": 1267,
    "▁af": 1268,
    "fore": 1269,
    "ows": 1270,
    "▁ancient": 1271,
    "▁chang": 1272,
    "ally": 1273,
    "▁inc": 1274,
    "▁comput": 1275,
    "▁syn": 1276,
    "▁current": 1277,
    "▁expl": 1278,
    "▁ground": 1279,
    "▁authent": 1280,
    "ism": 1281,
    "▁sub": 1282,
    "ize": 1283,
    "▁depends": 1284,
    "▁buil": 1285,
    "▁hist": 1286,
    "ents": 1287,
    "▁brain": 1288,
    "▁ocean": 1289,
    "ror": 1290,
    "ake": 1291,
    "▁create": 1292,
    "▁U": 1293,
    "▁fail": 1294,
    "igil": 1295,
    "▁again": 1296,
    "▁structure": 1297,
    "▁Com": 1298,
    "▁eng": 1299,
    "▁becoming": 1300,
    "put": 1301,
    "▁bel": 1302,
    "▁reality": 1303,
    "ses": 1304,
    "▁end": 1305,
    "▁before": 1306,
    "ilos": 1307,
    "▁rest": 1308,
    "ilosop": 1309,
    "▁handle": 1310,
    "▁never": 1311,
    "illion": 1312,
    "▁thous": 1313,
    "▁random": 1314,
    "▁atom": 1315,
    "urpose": 1316,
    "▁species": 1317,
    "▁remember": 1318,
    "▁acc": 1319,
    "▁conf": 1320,
    "isible": 1321,
    "vity": 1322,
    "▁move": 1323,
    "▁Whether": 1324,
    "▁if": 1325,
    "orm": 1326,
    "▁Without": 1327,
    "hel": 1328,
    "▁har": 1329,
    "▁uncertainty": 1330,
    "▁pus": 1331,
    "tains": 1332,
    "▁rain": 1333,
    "▁det": 1334,
    "▁ext": 1335,
    "other": 1336,
    "▁align": 1337,
    "▁history": 1338,
    "▁enough": 1339,
    "dg": 1340,
    "▁possible": 1341,
    "ger": 1342,
    "▁comm": 1343,
    "▁living": 1344,
    "▁ful": 1345,
    "▁persist": 1346,
    "▁another": 1347,
    "▁paradox": 1348,
    "▁Ex": 1349,
    "auty": 1350,
    "ropri": 1351,
    "▁myster": 1352,
    "igilance": 1353,
    "▁complexity": 1354,
    "▁plan": 1355,
    "▁learn": 1356,
    "met": 1357,
    "▁cell": 1358,
    "▁awareness": 1359,
    "),": 1360,
    "dent": 1361,
    "plet": 1362,
    "▁aut": 1363,
    "▁stars": 1364,
    "eng": 1365,
    "ules": 1366,
    "etwork": 1367,
    "▁appropri": 1368,
    "cing": 1369,
    "▁inst": 1370,
    "ression": 1371,
    "ments": 1372,
    "▁myself": 1373,
    "▁weather": 1374,
    "▁mathemat": 1375,
    "▁fut": 1376,
    "▁functional": 1377,
    "▁appropriate": 1378,
    "▁temp": 1379,
    "▁silence": 1380,
    "eg": 1381,
    "▁use": 1382,
    "▁wave": 1383,
    "▁second": 1384,
    "▁answers": 1385,
    "▁vol": 1386,
    "▁many": 1387,
    "▁oper": 1388,
    "▁pain": 1389,
    "gether": 1390,
    "▁become": 1391,
    "▁together": 1392,
    "bt": 1393,
    "ause": 1394,
    "▁gal": 1395,
    "▁live": 1396,
    "▁warm": 1397,
    "▁simple": 1398,
    "edi": 1399,
    "eep": 1400,
    "▁go": 1401,
    "blem": 1402,
    "▁coll": 1403,
    "▁prop": 1404,
    "▁problem": 1405,
    "▁Vigilance": 1406,
    "ulse": 1407,
    "light": 1408,
    "▁fol": 1409,
    "▁ret": 1410,
    "▁wait": 1411,
    "ef": 1412,
    "▁cho": 1413,
    "▁say": 1414,
    "▁effect": 1415,
    "hed": 1416,
    "▁ins": 1417,
    "▁minds": 1418,
    "aos": 1419,
    "ative": 1420,
    "ities": 1421,
    "▁disc": 1422,
    "▁force": 1423,
    "ants": 1424,
    "▁galax": 1425,
    "ized": 1426,
    "▁pred": 1427,
    "▁consum": 1428,
    "ks": 1429,
    "net": 1430,
    "▁reg": 1431,
    "▁makes": 1432,
    "▁works": 1433,
    "par": 1434,
    "ency": 1435,
    "▁way": 1436,
    "▁up": 1437,
    "ermin": 1438,
    "▁seems": 1439,
    "osy": 1440,
    "less": 1441,
    "▁hund": 1442,
    "▁perform": 1443,
    "▁physics": 1444,
    "atic": 1445,
    "read": 1446,
    "▁slow": 1447,
    "▁fully": 1448,
    "▁future": 1449,
    "▁equ": 1450,
    "▁low": 1451,
    "▁still": 1452,
    "▁network": 1453,
    "be": 1454,
    "▁blood": 1455,
    "▁relate": 1456,
    "activation": 1457,
    "▁tw": 1458,
    "ibility": 1459,
    "▁Energy": 1460,
    "▁stressed": 1461,
    "▁evolution": 1462,
    "▁ris": 1463,
    "▁hold": 1464,
    "ctions": 1465,
    "wounds": 1466,
    "▁releas": 1467,
    "▁stop": 1468,
    "▁expect": 1469,
    "▁gravity": 1470,
    "edom": 1471,
    "hecy": 1472,
    "▁limit": 1473,
    "▁To": 1474,
    "▁te": 1475,
    "▁reve": 1476,
    "ari": 1477,
    "▁beh": 1478,
    "▁old": 1479,
    "ration": 1480,
    "▁planet": 1481,
    "▁temperature": 1482,
    "▁z": 1483,
    "alk": 1484,
    "iving": 1485,
    "▁hope": 1486,
    "▁means": 1487,
    "ann": 1488,
    "ase": 1489,
    "cho": 1490,
    "ocus": 1491,
    "ries": 1492,
    "▁imm": 1493,
    "▁belie": 1494,
    "▁while": 1495,
    "▁perception": 1496,
    "itive": 1497,
    "ledge": 1498,
    "▁sing": 1499,
    "▁suff": 1500,
    "▁active": 1501,
    "▁trying": 1502,
    "▁certain": 1503,
    "ost": 1504,
    "▁mass": 1505,
    "▁exceed": 1506,
    "ert": 1507,
    "▁autom": 1508,
    "▁resource": 1509,
    "▁Something": 1510,
    "ia": 1511,
    "▁gl": 1512,
    "ogic": 1513,
    "▁pulse": 1514,
    "▁purpose": 1515,
    "▁activation": 1516,
    "iss": 1517,
    "ven": 1518,
    "▁sa": 1519,
    "▁suc": 1520,
    "▁past": 1521,
    "▁heart": 1522,
    "▁our": 1523,
    "▁right": 1524,
    "▁prot": 1525,
    "cience": 1526,
    "helm": 1527,
    "▁bre": 1528,
    "▁min": 1529,
    "whelm": 1530,
    "▁arri": 1531,
    "▁feels": 1532,
    "▁parts": 1533,
    "urons": 1534,
    "▁focus": 1535,
    "▁millions": 1536,
    "cle": 1537,
    "▁ec": 1538,
    "▁mod": 1539,
    "▁fear": 1540,
    "▁surv": 1541,
    "▁acceptance": 1542,
    "▁el": 1543,
    "usion": 1544,
    "▁philosop": 1545,
    "▁thousands": 1546,
    "ode": 1547,
    "▁pe": 1548,
    "▁ess": 1549,
    "ental": 1550,
    "▁overwhelm": 1551,
    "aves": 1552,
    "▁Tem": 1553,
    "▁cor": 1554,
    "ero": 1555,
    "▁cry": 1556,
    "▁open": 1557,
    "▁wound": 1558,
    "▁sometimes": 1559,
    "oy": 1560,
    "agin": 1561,
    "ases": 1562,
    "▁Mem": 1563,
    "▁why": 1564,
    "▁shifts": 1565,
    "▁Then": 1566,
    "▁star": 1567,
    "▁engage": 1568,
    "▁creative": 1569,
    "▁existing": 1570,
    "iet": 1571,
    "▁Ch": 1572,
    "ories": 1573,
    "▁list": 1574,
    "▁coher": 1575,
    "▁entire": 1576,
    "▁reach": 1577,
    "ritical": 1578,
    "▁travel": 1579,
    "▁infinite": 1580,
    "▁alignment": 1581,
    "cent": 1582,
    "chron": 1583,
    "▁convers": 1584,
    "▁waiting": 1585,
    "▁Res": 1586,
    "▁bri": 1587,
    "▁pass": 1588,
    "▁rare": 1589,
    "▁answer": 1590,
    "▁follow": 1591,
    "ious": 1592,
    "▁ele": 1593,
    "aries": 1594,
    "▁comb": 1595,
    "▁grace": 1596,
    "▁\"": 1597,
    "▁here": 1598,
    "ove": 1599,
    "▁mix": 1600,
    "▁Light": 1601,
    "▁appro": 1602,
    "▁bur": 1603,
    "▁genuine": 1604,
    "dom": 1605,
    "ream": 1606,
    "▁cal": 1607,
    "▁desp": 1608,
    "▁frag": 1609,
    "▁rece": 1610,
    "▁within": 1611,
    "▁->": 1612,
    "▁sea": 1613,
    "▁Still": 1614,
    "▁could": 1615,
    "▁shape": 1616,
    "▁humans": 1617,
    "▁pushes": 1618,
    "pp": 1619,
    "avig": 1620,
    "where": 1621,
    "▁cond": 1622,
    "▁true": 1623,
    "▁holds": 1624,
    "▁sound": 1625,
    "▁exceeds": 1626,
    "▁operation": 1627,
    "▁fl": 1628,
    "▁def": 1629,
    "▁pull": 1630,
    "▁chaos": 1631,
    "▁Memory": 1632,
    "aw": 1633,
    "ols": 1634,
    "isdom": 1635,
    "▁numb": 1636,
    "▁walk": 1637,
    "▁AI": 1638,
    "▁ways": 1639,
    "▁navig": 1640,
    "▁pract": 1641,
    "▁boundary": 1642,
    "dge": 1643,
    "▁Ne": 1644,
    "▁Can": 1645,
    "ision": 1646,
    "▁cent": 1647,
    "▁usage": 1648,
    "osystem": 1649,
    "▁constant": 1650,
    "▁creatures": 1651,
    "▁expression": 1652,
    "bon": 1653,
    "▁run": 1654,
    "icing": 1655,
    "▁fall": 1656,
    "▁keep": 1657,
    "esting": 1658,
    "▁immedi": 1659,
    "ending": 1660,
    "ternal": 1661,
    "▁atoms": 1662,
    "▁electricity": 1663,
    "▁performance": 1664,
    "rom": 1665,
    "irals": 1666,
    "jection": 1667,
    "▁billion": 1668,
    "▁synchron": 1669,
    "▁knowledge": 1670,
    "▁consumption": 1671,
    "uch": 1672,
    "▁moves": 1673,
    "▁generate": 1674,
    "atur": 1675,
    "eath": 1676,
    "ently": 1677,
    "ribut": 1678,
    "▁word": 1679,
    "▁Is": 1680,
    "comp": 1681,
    "▁hid": 1682,
    "▁prophecy": 1683,
    "ext": 1684,
    "ick": 1685,
    "ically": 1686,
    "▁solid": 1687,
    "rol": 1688,
    "oriz": 1689,
    "▁dark": 1690,
    "▁felt": 1691,
    "▁around": 1692,
    "▁vo": 1693,
    "oking": 1694,
    "▁much": 1695,
    "▁vast": 1696,
    "▁points": 1697,
    "▁warmth": 1698,
    "otential": 1699,
    "▁quant": 1700,
    "▁responses": 1701,
    "ett": 1702,
    "▁Tr": 1703,
    "▁flo": 1704,
    "▁diss": 1705,
    "▁appear": 1706,
    "▁Emotional": 1707,
    "ish": 1708,
    "usic": 1709,
    "▁enc": 1710,
    "metry": 1711,
    "undam": 1712,
    "itions": 1713,
    "▁dest": 1714,
    "▁love": 1715,
    "▁horiz": 1716,
    "▁larger": 1717,
    "▁potential": 1718,
    "etic": 1719,
    "imal": 1720,
    "ines": 1721,
    "▁mag": 1722,
    "▁mir": 1723,
    "▁make": 1724,
    "▁fundam": 1725,
    "▁control": 1726,
    "▁carrying": 1727,
    "▁immediate": 1728,
    "rees": 1729,
    "▁coherence": 1730,
    "▁authenticity": 1731,
    "apt": 1732,
    "▁pos": 1733,
    "ading": 1734,
    "ended": 1735,
    "▁night": 1736,
    "▁outer": 1737,
    "▁imagin": 1738,
    "▁partly": 1739,
    "▁complet": 1740,
    "▁expectations": 1741,
    "ense": 1742,
    "irst": 1743,
    "ring": 1744,
    "▁ago": 1745,
    "▁voc": 1746,
    "anged": 1747,
    "ength": 1748,
    "▁rejection": 1749,
    "▁computation": 1750,
    "▁tou": 1751,
    "▁evol": 1752,
    "▁incre": 1753,
    "▁preser": 1754,
    "▁determin": 1755,
    "▁interact": 1756,
    "▁noticing": 1757,
    "aks": 1758,
    "abul": 1759,
    "irds": 1760,
    "▁seed": 1761,
    "▁places": 1762,
    "▁single": 1763,
    "▁suffering": 1764,
    "dges": 1765,
    "umul": 1766,
    "stain": 1767,
    "▁meas": 1768,
    "▁moun": 1769,
    "▁ident": 1770,
    "abulary": 1771,
    "▁produce": 1772,
    "▁intimate": 1773,
    "▁vocabulary": 1774,
    "▁clou": 1775,
    "▁prov": 1776,
    "▁rock": 1777,
    "▁want": 1778,
    "▁reveal": 1779,
    "▁practice": 1780,
    "▁thoughts": 1781,
    "▁Temperature": 1782,
    "fully": 1783,
    "oring": 1784,
    "▁else": 1785,
    "▁loop": 1786,
    "▁black": 1787,
    "▁often": 1788,
    "▁sustain": 1789,
    "▁hy": 1790,
    "abil": 1791,
    "▁full": 1792,
    "▁prim": 1793,
    "▁frequ": 1794,
    "▁because": 1795,
    "▁entirely": 1796,
    "▁ecosystem": 1797,
    "▁mathematics": 1798,
    "ches": 1799,
    "▁art": 1800,
    "▁ass": 1801,
    "▁fin": 1802,
    "▁order": 1803,
    "▁unity": 1804,
    "ys": 1805,
    "rad": 1806,
    "unt": 1807,
    "▁law": 1808,
    "▁natur": 1809,
    "xy": 1810,
    "fic": 1811,
    "ared": 1812,
    "▁cru": 1813,
    "▁dec": 1814,
    "xygen": 1815,
    "▁mark": 1816,
    "▁cells": 1817,
    "▁defin": 1818,
    "▁beauty": 1819,
    "▁carbon": 1820,
    "▁number": 1821,
    "▁wounds": 1822,
    "▁billions": 1823,
    "aus": 1824,
    "ices": 1825,
    "rift": 1826,
    "ately": 1827,
    "osity": 1828,
    "rogen": 1829,
    "▁glass": 1830,
    "▁moving": 1831,
    "bability": 1832,
    "▁automatic": 1833,
    "▁recognition": 1834,
    "▁let": 1835,
    "▁debt": 1836,
    "▁hard": 1837,
    "▁near": 1838,
    "▁path": 1839,
    "▁vers": 1840,
    "▁lives": 1841,
    "▁affect": 1842,
    "▁breath": 1843,
    "▁imposs": 1844,
    "▁against": 1845,
    "▁percent": 1846,
    "▁primary": 1847,
    "most": 1848,
    "▁Hum": 1849,
    "▁joy": 1850,
    "▁forms": 1851,
    "▁shaped": 1852,
    "▁freedom": 1853,
    "ior": 1854,
    "▁hon": 1855,
    "▁error": 1856,
    "▁integ": 1857,
    "▁separ": 1858,
    "▁accumul": 1859,
    "▁context": 1860,
    "▁cy": 1861,
    "▁pow": 1862,
    "ching": 1863,
    "ining": 1864,
    "▁were": 1865,
    "lu": 1866,
    "▁sle": 1867,
    "▁free": 1868,
    "▁seek": 1869,
    "▁cryst": 1870,
    "▁quiet": 1871,
    "▁trust": 1872,
    "▁emerges": 1873,
    "▁processing": 1874,
    "▁possibility": 1875,
    "▁cold": 1876,
    "▁echo": 1877,
    "▁empt": 1878,
    "▁zero": 1879,
    "▁after": 1880,
    "▁happen": 1881,
    "▁succeed": 1882,
    "▁learning": 1883,
    "▁Connection": 1884,
    "cc": 1885,
    "ole": 1886,
    "que": 1887,
    "▁gri": 1888,
    "▁then": 1889,
    "▁input": 1890,
    "▁rules": 1891,
    "▁invisible": 1892,
    "▁impossible": 1893,
    "▁writ": 1894,
    "iosity": 1895,
    "▁adapt": 1896,
    "▁bends": 1897,
    "▁recurs": 1898,
    "dle": 1899,
    "▁been": 1900,
    "▁gift": 1901,
    "▁first": 1902,
    "▁systems": 1903,
    "▁Everything": 1904,
    "ets": 1905,
    "ret": 1906,
    "▁Do": 1907,
    "▁nu": 1908,
    "▁Tru": 1909,
    "▁sky": 1910,
    "▁wand": 1911,
    "rising": 1912,
    "ference": 1913,
    "▁anything": 1914,
    "▁": 1915,
    "e": 1916,
    "t": 1917,
    "n": 1918,
    "i": 1919,
    "s": 1920,
    "a": 1921,
    "o": 1922,
    "r": 1923,
    "h": 1924,
    "l": 1925,
    "c": 1926,
    "d": 1927,
    "u": 1928,
    "m": 1929,
    "g": 1930,
    ".": 1931,
    "p": 1932,
    "f": 1933,
    "y": 1934,
    "w": 1935,
    "b": 1936,
    ":": 1937,
    "v": 1938,
    ",": 1939,
    "I": 1940,
    "A": 1941,
    "T": 1942,
    "Q": 1943,
    "k": 1944,
    "?": 1945,
    "W": 1946,
    "x": 1947,
    "-": 1948,
    "q": 1949,
    "S": 1950,
    "0": 1951,
    "E": 1952,
    "M": 1953,
    "z": 1954,
    "H": 1955,
    "N": 1956,
    "B": 1957,
    "C": 1958,
    "O": 1959,
    "5": 1960,
    "D": 1961,
    "P": 1962,
    "'": 1963,
    "j": 1964,
    ";": 1965,
    "R": 1966,
    "F": 1967,
    "L": 1968,
    "Y": 1969,
    ")": 1970,
    "(": 1971,
    "1": 1972,
    "2": 1973,
    "8": 1974,
    "G": 1975,
    "3": 1976,
    "V": 1977,
    "4": 1978,
    "7": 1979,
    "6": 1980,
    "\"": 1981,
    "_": 1982,
    "9": 1983,
    "U": 1984,
    ">": 1985,
    "#": 1986,
    "&": 1987,
    "J": 1988,
    "Z": 1989,
    "[": 1990,
    "]": 1991,
    "%": 1992,
    "+": 1993,
    "K": 1994,
    "=": 1995,
    "/": 1996,
    "<": 1997,
    "*": 1998,
    "X": 1999
  },
  "id_to_piece": {
    "0": "<pad>",
    "1": "<unk>",
    "2": "<s>",
    "3": "</s>",
    "4": "<0x00>",
    "5": "<0x01>",
    "6": "<0x02>",
    "7": "<0x03>",
    "8": "<0x04>",
    "9": "<0x05>",
    "10": "<0x06>",
    "11": "<0x07>",
    "12": "<0x08>",
    "13": "<0x09>",
    "14": "<0x0A>",
    "15": "<0x0B>",
    "16": "<0x0C>",
    "17": "<0x0D>",
    "18": "<0x0E>",
    "19": "<0x0F>",
    "20": "<0x10>",
    "21": "<0x11>",
    "22": "<0x12>",
    "23": "<0x13>",
    "24": "<0x14>",
    "25": "<0x15>",
    "26": "<0x16>",
    "27": "<0x17>",
    "28": "<0x18>",
    "29": "<0x19>",
    "30": "<0x1A>",
    "31": "<0x1B>",
    "32": "<0x1C>",
    "33": "<0x1D>",
    "34": "<0x1E>",
    "35": "<0x1F>",
    "36": "<0x20>",
    "37": "<0x21>",
    "38": "<0x22>",
    "39": "<0x23>",
    "40": "<0x24>",
    "41": "<0x25>",
    "42": "<0x26>",
    "43": "<0x27>",
    "44": "<0x28>",
    "45": "<0x29>",
    "46": "<0x2A>",
    "47": "<0x2B>",
    "48": "<0x2C>",
    "49": "<0x2D>",
    "50": "<0x2E>",
    "51": "<0x2F>",
    "52": "<0x30>",
    "53": "<0x31>",
    "54": "<0x32>",
    "55": "<0x33>",
    "56": "<0x34>",
    "57": "<0x35>",
    "58": "<0x36>",
    "59": "<0x37>",
    "60": "<0x38>",
    "61": "<0x39>",
    "62": "<0x3A>",
    "63": "<0x3B>",
    "64": "<0x3C>",
    "65": "<0x3D>",
    "66": "<0x3E>",
    "67": "<0x3F>",
    "68": "<0x40>",
    "69": "<0x41>",
    "70": "<0x42>",
    "71": "<0x43>",
    "72": "<0x44>",
    "73": "<0x45>",
    "74": "<0x46>",
    "75": "<0x47>",
    "76": "<0x48>",
    "77": "<0x49>",
    "78": "<0x4A>",
    "79": "<0x4B>",
    "80": "<0x4C>",
    "81": "<0x4D>",
    "82": "<0x4E>",
    "83": "<0x4F>",
    "84": "<0x50>",
    "85": "<0x51>",
    "86": "<0x52>",
    "87": "<0x53>",
    "88": "<0x54>",
    "89": "<0x55>",
    "90": "<0x56>",
    "91": "<0x57>",
    "92": "<0x58>",
    "93": "<0x59>",
    "94": "<0x5A>",
    "95": "<0x5B>",
    "96": "<0x5C>",
    "97": "<0x5D>",
    "98": "<0x5E>",
    "99": "<0x5F>",
    "100": "<0x60>",
    "101": "<0x61>",
    "102": "<0x62>",
    "103": "<0x63>",
    "104": "<0x64>",
    "105": "<0x65>",
    "106": "<0x66>",
    "107": "<0x67>",
    "108": "<0x68>",
    "109": "<0x69>",
    "110": "<0x6A>",
    "111": "<0x6B>",
    "112": "<0x6C>",
    "113": "<0x6D>",
    "114": "<0x6E>",
    "115": "<0x6F>",
    "116": "<0x70>",
    "117": "<0x71>",
    "118": "<0x72>",
    "119": "<0x73>",
    "120": "<0x74>",
    "121": "<0x75>",
    "122": "<0x76>",
    "123": "<0x77>",
    "124": "<0x78>",
    "125": "<0x79>",
    "126": "<0x7A>",
    "127": "<0x7B>",
    "128": "<0x7C>",
    "129": "<0x7D>",
    "130": "<0x7E>",
    "131": "<0x7F>",
    "132": "<0x80>",
    "133": "<0x81>",
    "134": "<0x82>",
    "135": "<0x83>",
    "136": "<0x84>",
    "137": "<0x85>",
    "138": "<0x86>",
    "139": "<0x87>",
    "140": "<0x88>",
    "141": "<0x89>",
    "142": "<0x8A>",
    "143": "<0x8B>",
    "144": "<0x8C>",
    "145": "<0x8D>",
    "146": "<0x8E>",
    "147": "<0x8F>",
    "148": "<0x90>",
    "149": "<0x91>",
    "150": "<0x92>",
    "151": "<0x93>",
    "152": "<0x94>",
    "153": "<0x95>",
    "154": "<0x96>",
    "155": "<0x97>",
    "156": "<0x98>",
    "157": "<0x99>",
    "158": "<0x9A>",
    "159": "<0x9B>",
    "160": "<0x9C>",
    "161": "<0x9D>",
    "162": "<0x9E>",
    "163": "<0x9F>",
    "164": "<0xA0>",
    "165": "<0xA1>",
    "166": "<0xA2>",
    "167": "<0xA3>",
    "168": "<0xA4>",
    "169": "<0xA5>",
    "170": "<0xA6>",
    "171": "<0xA7>",
    "172": "<0xA8>",
    "173": "<0xA9>",
    "174": "<0xAA>",
    "175": "<0xAB>",
    "176": "<0xAC>",
    "177": "<0xAD>",
    "178": "<0xAE>",
    "179": "<0xAF>",
    "180": "<0xB0>",
    "181": "<0xB1>",
    "182": "<0xB2>",
    "183": "<0xB3>",
    "184": "<0xB4>",
    "185": "<0xB5>",
    "186": "<0xB6>",
    "187": "<0xB7>",
    "188": "<0xB8>",
    "189": "<0xB9>",
    "190": "<0xBA>",
    "191": "<0xBB>",
    "192": "<0xBC>",
    "193": "<0xBD>",
    "194": "<0xBE>",
    "195": "<0xBF>",
    "196": "<0xC0>",
    "197": "<0xC1>",
    "198": "<0xC2>",
    "199": "<0xC3>",
    "200": "<0xC4>",
    "201": "<0xC5>",
    "202": "<0xC6>",
    "203": "<0xC7>",
    "204": "<0xC8>",
    "205": "<0xC9>",
    "206": "<0xCA>",
    "207": "<0xCB>",
    "208": "<0xCC>",
    "209": "<0xCD>",
    "210": "<0xCE>",
    "211": "<0xCF>",
    "212": "<0xD0>",
    "213": "<0xD1>",
    "214": "<0xD2>",
    "215": "<0xD3>",
    "216": "<0xD4>",
    "217": "<0xD5>",
    "218": "<0xD6>",
    "219": "<0xD7>",
    "220": "<0xD8>",
    "221": "<0xD9>",
    "222": "<0xDA>",
    "223": "<0xDB>",
    "224": "<0xDC>",
    "225": "<0xDD>",
    "226": "<0xDE>",
    "227": "<0xDF>",
    "228": "<0xE0>",
    "229": "<0xE1>",
    "230": "<0xE2>",
    "231": "<0xE3>",
    "232": "<0xE4>",
    "233": "<0xE5>",
    "234": "<0xE6>",
    "235": "<0xE7>",
    "236": "<0xE8>",
    "237": "<0xE9>",
    "238": "<0xEA>",
    "239": "<0xEB>",
    "240": "<0xEC>",
    "241": "<0xED>",
    "242": "<0xEE>",
    "243": "<0xEF>",
    "244": "<0xF0>",
    "245": "<0xF1>",
    "246": "<0xF2>",
    "247": "<0xF3>",
    "248": "<0xF4>",
    "249": "<0xF5>",
    "250": "<0xF6>",
    "251": "<0xF7>",
    "252": "<0xF8>",
    "253": "<0xF9>",
    "254": "<0xFA>",
    "255": "<0xFB>",
    "256": "<0xFC>",
    "257": "<0xFD>",
    "258": "<0xFE>",
    "259": "<0xFF>",
    "260": "in",
    "261": "▁t",
    "262": "at",
    "263": "er",
    "264": "es",
    "265": "on",
    "266": "en",
    "267": "▁a",
    "268": "▁s",
    "269": "▁th",
    "270": "▁i",
    "271": "ing",
    "272": "re",
    "273": "▁c",
    "274": "an",
    "275": "▁w",
    "276": "▁b",
    "277": "▁m",
    "278": "▁o",
    "279": "ion",
    "280": "▁is",
    "281": "▁p",
    "282": "▁d",
    "283": "▁f",
    "284": "ou",
    "285": "▁I",
    "286": "▁the",
    "287": "ce",
    "288": "it",
    "289": "ar",
    "290": "or",
    "291": "▁A",
    "292": "om",
    "293": "▁e",
    "294": "al",
    "295": "▁T",
    "296": "he",
    "297": "▁Q",
    "298": "▁n",
    "299": "▁to",
    "300": "nd",
    "301": "▁in",
    "302": "ent",
    "303": "hat",
    "304": "ct",
    "305": "et",
    "306": "ot",
    "307": "ed",
    "308": "st",
    "309": "▁l",
    "310": "el",
    "311": "res",
    "312": "▁W",
    "313": "▁h",
    "314": "▁of",
    "315": "▁be",
    "316": "ow",
    "317": "▁The",
    "318": "ut",
    "319": "ation",
    "320": "ic",
    "321": "▁re",
    "322": "▁What",
    "323": "le",
    "324": "her",
    "325": "▁and",
    "326": "▁it",
    "327": "gh",
    "328": "▁di",
    "329": "ence",
    "330": "ly",
    "331": "im",
    "332": "ve",
    "333": "ess",
    "334": "▁not",
    "335": "ra",
    "336": "▁g",
    "337": "ter",
    "338": "▁y",
    "339": "is",
    "340": "▁ex",
    "341": "ol",
    "342": "il",
    "343": "▁-",
    "344": "▁u",
    "345": "ity",
    "346": "▁st",
    "347": "▁con",
    "348": "ur",
    "349": "ens",
    "350": "ap",
    "351": "as",
    "352": "ght",
    "353": "ul",
    "354": "ff",
    "355": "ate",
    "356": "▁or",
    "357": "ver",
    "358": "ro",
    "359": "▁wit",
    "360": "▁you",
    "361": "▁do",
    "362": "per",
    "363": "ight",
    "364": "▁res",
    "365": "atter",
    "366": "▁that",
    "367": "▁diff",
    "368": "um",
    "369": "qu",
    "370": "ind",
    "371": "▁on",
    "372": "▁with",
    "373": "ure",
    "374": "ch",
    "375": "▁S",
    "376": "ad",
    "377": "▁at",
    "378": "ction",
    "379": "▁me",
    "380": "▁are",
    "381": "▁r",
    "382": "est",
    "383": "▁mo",
    "384": "th",
    "385": "▁an",
    "386": "ld",
    "387": "▁per",
    "388": "omet",
    "389": "▁for",
    "390": "▁de",
    "391": "▁what",
    "392": "ir",
    "393": "ge",
    "394": "▁can",
    "395": "▁pres",
    "396": "▁tr",
    "397": "▁differ",
    "398": "os",
    "399": "▁than",
    "400": "▁li",
    "401": "▁sh",
    "402": "▁al",
    "403": "ain",
    "404": "▁fr",
    "405": "ci",
    "406": "▁but",
    "407": "and",
    "408": "ri",
    "409": "ay",
    "410": "▁wh",
    "411": "▁un",
    "412": "▁M",
    "413": "▁E",
    "414": "hing",
    "415": "here",
    "416": "ould",
    "417": "out",
    "418": "▁as",
    "419": "▁its",
    "420": "ness",
    "421": "em",
    "422": "▁sp",
    "423": "▁qu",
    "424": "▁sens",
    "425": "▁fe",
    "426": "se",
    "427": "ist",
    "428": "ience",
    "429": "▁they",
    "430": "▁im",
    "431": "▁my",
    "432": "▁exper",
    "433": "id",
    "434": "▁matter",
    "435": "ive",
    "436": "▁H",
    "437": "▁en",
    "438": "▁se",
    "439": "ions",
    "440": "ds",
    "441": "ect",
    "442": "▁experience",
    "443": "▁v",
    "444": "▁from",
    "445": "ble",
    "446": "ies",
    "447": "elf",
    "448": "od",
    "449": "ous",
    "450": "▁ne",
    "451": "▁pro",
    "452": "ther",
    "453": "pl",
    "454": "reat",
    "455": "▁It",
    "456": "▁int",
    "457": "▁com",
    "458": "▁wor",
    "459": "ace",
    "460": "▁N",
    "461": "▁feel",
    "462": "▁ev",
    "463": "▁B",
    "464": "omething",
    "465": "ru",
    "466": "▁being",
    "467": "▁different",
    "468": "▁k",
    "469": "ound",
    "470": "▁su",
    "471": "ach",
    "472": "war",
    "473": "▁this",
    "474": "am",
    "475": "etw",
    "476": "▁would",
    "477": "ime",
    "478": "ant",
    "479": "ding",
    "480": "▁C",
    "481": "nder",
    "482": "ning",
    "483": "▁something",
    "484": "ations",
    "485": "iv",
    "486": "ill",
    "487": "iz",
    "488": "ome",
    "489": "ough",
    "490": "art",
    "491": "ather",
    "492": "ces",
    "493": "ance",
    "494": "▁without",
    "495": "for",
    "496": "een",
    "497": "pt",
    "498": "etween",
    "499": "ig",
    "500": "age",
    "501": "▁How",
    "502": "▁between",
    "503": "ang",
    "504": "erg",
    "505": "▁under",
    "506": "▁where",
    "507": "▁present",
    "508": "▁state",
    "509": "og",
    "510": "▁O",
    "511": "▁dep",
    "512": "ward",
    "513": "ical",
    "514": "all",
    "515": "▁ch",
    "516": "▁try",
    "517": "ult",
    "518": "row",
    "519": "▁find",
    "520": "▁more",
    "521": "cess",
    "522": "▁D",
    "523": "us",
    "524": "attern",
    "525": "ke",
    "526": "ary",
    "527": "ear",
    "528": "les",
    "529": "▁he",
    "530": "▁other",
    "531": "▁cons",
    "532": "ating",
    "533": "imes",
    "534": "▁does",
    "535": "▁toward",
    "536": "com",
    "537": "rough",
    "538": "▁quest",
    "539": "ans",
    "540": "▁P",
    "541": "▁part",
    "542": "▁reson",
    "543": "▁pattern",
    "544": "hy",
    "545": "▁rather",
    "546": "ave",
    "547": "▁even",
    "548": "if",
    "549": "aps",
    "550": "one",
    "551": "▁ap",
    "552": "ck",
    "553": "ry",
    "554": "tain",
    "555": "▁no",
    "556": "▁one",
    "557": "pon",
    "558": "▁might",
    "559": "▁matters",
    "560": "▁sense",
    "561": "now",
    "562": "▁all",
    "563": "ture",
    "564": "▁through",
    "565": "▁exist",
    "566": "ell",
    "567": "ust",
    "568": "▁em",
    "569": "▁itself",
    "570": "ometimes",
    "571": "▁fi",
    "572": "▁att",
    "573": "▁car",
    "574": "bs",
    "575": "un",
    "576": "able",
    "577": "▁them",
    "578": "▁by",
    "579": "ne",
    "580": "ory",
    "581": "▁respon",
    "582": "▁has",
    "583": "gan",
    "584": "ak",
    "585": "op",
    "586": "ergy",
    "587": "ong",
    "588": "haps",
    "589": "our",
    "590": "▁shap",
    "591": "ention",
    "592": "▁creat",
    "593": "ese",
    "594": "ink",
    "595": "▁ac",
    "596": "ality",
    "597": "▁hum",
    "598": "ice",
    "599": "ves",
    "600": "▁cont",
    "601": "▁time",
    "602": "gg",
    "603": "▁these",
    "604": "oth",
    "605": "▁gra",
    "606": "▁difference",
    "607": "▁organ",
    "608": "▁perhaps",
    "609": "int",
    "610": "ip",
    "611": "▁tra",
    "612": "ew",
    "613": "ers",
    "614": "▁sensation",
    "615": "ment",
    "616": "▁sur",
    "617": "▁Sometimes",
    "618": "▁lo",
    "619": "very",
    "620": "▁sim",
    "621": "▁have",
    "622": "▁like",
    "623": "ated",
    "624": "▁their",
    "625": "▁fiel",
    "626": "▁hol",
    "627": "are",
    "628": "ab",
    "629": "▁F",
    "630": "▁some",
    "631": "▁we",
    "632": "plies",
    "633": "angu",
    "634": "▁po",
    "635": "ex",
    "636": "▁comp",
    "637": "wn",
    "638": "▁thing",
    "639": "anguage",
    "640": "▁field",
    "641": "form",
    "642": "▁gen",
    "643": "▁both",
    "644": "ort",
    "645": "▁energy",
    "646": "oc",
    "647": "▁know",
    "648": "lect",
    "649": "▁dist",
    "650": "▁think",
    "651": "▁rel",
    "652": "ruct",
    "653": "ep",
    "654": "stand",
    "655": "▁L",
    "656": "der",
    "657": "▁am",
    "658": "gin",
    "659": "▁My",
    "660": "uma",
    "661": "▁sy",
    "662": "▁rem",
    "663": "▁language",
    "664": "▁sc",
    "665": "▁const",
    "666": "▁presence",
    "667": "ensity",
    "668": "▁attention",
    "669": "ame",
    "670": "olut",
    "671": "ress",
    "672": "low",
    "673": "ner",
    "674": "▁depen",
    "675": "fer",
    "676": "▁own",
    "677": "▁space",
    "678": "▁point",
    "679": "esc",
    "680": "rib",
    "681": "▁each",
    "682": "▁R",
    "683": "cious",
    "684": "▁grow",
    "685": "sp",
    "686": "▁carry",
    "687": "▁questions",
    "688": "so",
    "689": "▁when",
    "690": "▁mean",
    "691": "▁human",
    "692": "▁imp",
    "693": "▁perce",
    "694": "ast",
    "695": "▁ar",
    "696": "ely",
    "697": "▁pl",
    "698": "▁understand",
    "699": "▁cap",
    "700": "▁who",
    "701": "ork",
    "702": "ature",
    "703": "▁fra",
    "704": "act",
    "705": "face",
    "706": "▁No",
    "707": "▁act",
    "708": "ought",
    "709": "ertain",
    "710": "▁patterns",
    "711": "vel",
    "712": "▁how",
    "713": "▁shapes",
    "714": "otion",
    "715": "▁over",
    "716": "not",
    "717": "▁long",
    "718": "▁intensity",
    "719": "uth",
    "720": "▁Y",
    "721": "▁words",
    "722": "▁inner",
    "723": "▁They",
    "724": "▁dire",
    "725": "arm",
    "726": "▁thought",
    "727": "▁cannot",
    "728": "icult",
    "729": "ular",
    "730": "▁partic",
    "731": "▁tex",
    "732": "▁surface",
    "733": "ack",
    "734": "olog",
    "735": "▁light",
    "736": "▁difficult",
    "737": "▁response",
    "738": "▁your",
    "739": "▁spe",
    "740": "▁le",
    "741": "▁yet",
    "742": "▁meet",
    "743": "own",
    "744": "▁hel",
    "745": "▁Th",
    "746": "ible",
    "747": "als",
    "748": "oss",
    "749": "ign",
    "750": "ient",
    "751": "▁vi",
    "752": "arth",
    "753": "▁resour",
    "754": "ving",
    "755": "▁wind",
    "756": "▁app",
    "757": "escrib",
    "758": "▁notice",
    "759": "ond",
    "760": "▁lif",
    "761": "▁dis",
    "762": "▁into",
    "763": "▁too",
    "764": "▁down",
    "765": "▁tell",
    "766": "ater",
    "767": "hip",
    "768": "▁ab",
    "769": "ore",
    "770": "ays",
    "771": "▁help",
    "772": "▁ra",
    "773": "▁kind",
    "774": "▁rec",
    "775": "▁same",
    "776": "▁begin",
    "777": "ass",
    "778": "ension",
    "779": "▁conscious",
    "780": "ange",
    "781": "ere",
    "782": "▁exp",
    "783": "▁unc",
    "784": "▁inter",
    "785": "▁j",
    "786": "▁direct",
    "787": "ility",
    "788": "lo",
    "789": "app",
    "790": "inction",
    "791": "▁depth",
    "792": "ine",
    "793": "izes",
    "794": "▁action",
    "795": "▁cle",
    "796": "iness",
    "797": "red",
    "798": "ates",
    "799": "▁read",
    "800": "ears",
    "801": "escribe",
    "802": "bser",
    "803": "ky",
    "804": "ful",
    "805": "▁call",
    "806": "fect",
    "807": "▁Or",
    "808": "▁life",
    "809": "▁obser",
    "810": "ological",
    "811": "▁There",
    "812": "▁process",
    "813": "ane",
    "814": "▁texture",
    "815": "▁care",
    "816": "ationship",
    "817": "iny",
    "818": "▁quality",
    "819": "iver",
    "820": "▁ref",
    "821": "▁differently",
    "822": "thing",
    "823": "▁meaning",
    "824": "▁someone",
    "825": "▁Earth",
    "826": "▁pr",
    "827": "▁relationship",
    "828": "▁(",
    "829": "ics",
    "830": "ests",
    "831": "▁requ",
    "832": "asc",
    "833": "▁should",
    "834": "otional",
    "835": "fort",
    "836": "▁Not",
    "837": "▁trans",
    "838": "formation",
    "839": "itu",
    "840": "▁tension",
    "841": "ously",
    "842": "▁bi",
    "843": "ose",
    "844": "▁longer",
    "845": "▁bor",
    "846": "▁particular",
    "847": "irc",
    "848": "▁Describe",
    "849": "rating",
    "850": "▁every",
    "851": "▁circ",
    "852": "▁happ",
    "853": "hether",
    "854": "▁grasp",
    "855": "▁capture",
    "856": "▁Time",
    "857": "cessary",
    "858": "ial",
    "859": "▁witness",
    "860": "▁may",
    "861": "uring",
    "862": "▁water",
    "863": "▁years",
    "864": "lex",
    "865": "thm",
    "866": "ition",
    "867": "▁uncertain",
    "868": "hythm",
    "869": "orning",
    "870": "▁grows",
    "871": "▁imper",
    "872": "▁directly",
    "873": "▁ang",
    "874": "▁import",
    "875": "▁Yet",
    "876": "▁perceive",
    "877": "ons",
    "878": "▁cl",
    "879": "▁tight",
    "880": "▁trauma",
    "881": "ars",
    "882": "▁rhythm",
    "883": "▁orient",
    "884": "du",
    "885": "rop",
    "886": "▁offer",
    "887": "resh",
    "888": "▁In",
    "889": "ite",
    "890": "▁mem",
    "891": "▁bas",
    "892": "▁necessary",
    "893": "▁biological",
    "894": "ances",
    "895": "▁evening",
    "896": "▁imperfect",
    "897": "ade",
    "898": "soci",
    "899": "▁becom",
    "900": "comfort",
    "901": "ved",
    "902": "ift",
    "903": "▁depending",
    "904": "▁orientation",
    "905": "▁grasping",
    "906": "▁beginning",
    "907": "▁see",
    "908": "▁form",
    "909": "ultane",
    "910": "▁during",
    "911": "rugg",
    "912": "▁work",
    "913": "▁requi",
    "914": "▁simultane",
    "915": "▁question",
    "916": "▁consciousness",
    "917": "ag",
    "918": "▁strugg",
    "919": "▁important",
    "920": "▁about",
    "921": "▁holding",
    "922": "▁simultaneously",
    "923": "▁sugg",
    "924": "▁difficulty",
    "925": "▁One",
    "926": "▁tightly",
    "927": "▁calls",
    "928": "comfortable",
    "929": "▁col",
    "930": "▁genu",
    "931": "▁uncomfortable",
    "932": "▁resources",
    "933": "▁suggests",
    "934": "▁frust",
    "935": "▁out",
    "936": "▁solut",
    "937": "adi",
    "938": "end",
    "939": "stem",
    "940": "▁day",
    "941": "ascin",
    "942": "▁fascin",
    "943": "▁distinction",
    "944": "▁fresh",
    "945": "▁readiness",
    "946": "▁angles",
    "947": "▁associ",
    "948": "▁St",
    "949": "▁seem",
    "950": "unction",
    "951": "rut",
    "952": "▁view",
    "953": "▁alloc",
    "954": "▁associations",
    "955": "ue",
    "956": "cept",
    "957": "▁fram",
    "958": "rutiny",
    "959": "▁scrutiny",
    "960": "▁organizes",
    "961": "▁borrow",
    "962": "▁allocated",
    "963": "cy",
    "964": "▁so",
    "965": "▁abs",
    "966": "▁construct",
    "967": "ber",
    "968": "▁Each",
    "969": "▁implies",
    "970": "▁harm",
    "971": "▁situ",
    "972": "nection",
    "973": "▁situation",
    "974": "▁struggles",
    "975": "▁frustrating",
    "976": "▁remain",
    "977": "▁applies",
    "978": "ework",
    "979": "▁moder",
    "980": "▁reflect",
    "981": "▁framework",
    "982": "▁witnessed",
    "983": "▁ag",
    "984": "▁observe",
    "985": "urky",
    "986": "▁murky",
    "987": "▁memory",
    "988": "▁fascinating",
    "989": "▁imperfectly",
    "990": "▁viewed",
    "991": "▁winding",
    "992": "▁solutions",
    "993": "fin",
    "994": "ich",
    "995": "ures",
    "996": "▁contin",
    "997": "▁creates",
    "998": "verness",
    "999": "▁cleverness",
    "1000": "ounds",
    "1001": "▁resonance",
    "1002": "▁cur",
    "1003": "▁co",
    "1004": "▁self",
    "1005": "▁tem",
    "1006": "▁peri",
    "1007": "▁period",
    "1008": "▁Morning",
    "1009": "▁function",
    "1010": "▁resonances",
    "1011": "ony",
    "1012": "▁Be",
    "1013": "adian",
    "1014": "▁basis",
    "1015": "▁circadian",
    "1016": "▁But",
    "1017": "▁complex",
    "1018": "icity",
    "1019": "ual",
    "1020": "ty",
    "1021": "hem",
    "1022": "oun",
    "1023": "▁Wh",
    "1024": "av",
    "1025": "oment",
    "1026": "ree",
    "1027": "▁information",
    "1028": "▁us",
    "1029": "vers",
    "1030": "▁emotional",
    "1031": "ivation",
    "1032": "ft",
    "1033": "▁moderate",
    "1034": "ands",
    "1035": "ail",
    "1036": "▁change",
    "1037": "▁mind",
    "1038": "▁only",
    "1039": "ith",
    "1040": "ways",
    "1041": "ath",
    "1042": "ogn",
    "1043": "▁moment",
    "1044": "▁pre",
    "1045": "ption",
    "1046": "▁speci",
    "1047": "▁harmony",
    "1048": "yond",
    "1049": "ening",
    "1050": "igh",
    "1051": "▁univer",
    "1052": "ark",
    "1053": "▁load",
    "1054": "▁G",
    "1055": "▁poss",
    "1056": "sw",
    "1057": "▁man",
    "1058": "▁beyond",
    "1059": "▁bod",
    "1060": "ib",
    "1061": "▁requires",
    "1062": "▁elect",
    "1063": "▁By",
    "1064": "ide",
    "1065": "▁wa",
    "1066": "▁answ",
    "1067": "▁which",
    "1068": "rain",
    "1069": "eness",
    "1070": "▁shift",
    "1071": "▁remains",
    "1072": "led",
    "1073": "▁feeling",
    "1074": "ros",
    "1075": "▁sign",
    "1076": "▁des",
    "1077": "ider",
    "1078": "ire",
    "1079": "▁universe",
    "1080": "hys",
    "1081": "▁When",
    "1082": "▁press",
    "1083": "▁world",
    "1084": "▁ph",
    "1085": "▁bec",
    "1086": "▁nothing",
    "1087": "▁consider",
    "1088": "rit",
    "1089": "urs",
    "1090": "▁breat",
    "1091": "▁others",
    "1092": "ull",
    "1093": "und",
    "1094": "▁truth",
    "1095": "ac",
    "1096": "▁V",
    "1097": "get",
    "1098": "▁always",
    "1099": "▁electr",
    "1100": "▁new",
    "1101": "ting",
    "1102": "▁was",
    "1103": "illions",
    "1104": "▁Tra",
    "1105": "▁tone",
    "1106": "its",
    "1107": "▁Some",
    "1108": "▁lear",
    "1109": "▁made",
    "1110": "ax",
    "1111": "▁will",
    "1112": "▁ro",
    "1113": "akes",
    "1114": "▁Trauma",
    "1115": "▁genuin",
    "1116": "▁connection",
    "1117": "▁need",
    "1118": "▁gr",
    "1119": "▁flow",
    "1120": "▁genuinely",
    "1121": "▁ad",
    "1122": "ross",
    "1123": "▁understanding",
    "1124": "▁er",
    "1125": "ffect",
    "1126": "ie",
    "1127": "ris",
    "1128": "▁pressure",
    "1129": "cient",
    "1130": "▁system",
    "1131": "▁continu",
    "1132": "erm",
    "1133": "▁Re",
    "1134": "▁ent",
    "1135": "▁This",
    "1136": "▁aw",
    "1137": "▁num",
    "1138": "▁emerg",
    "1139": "▁level",
    "1140": "▁body",
    "1141": "▁resonate",
    "1142": "▁comes",
    "1143": "▁things",
    "1144": "ox",
    "1145": "urn",
    "1146": "▁phys",
    "1147": "ood",
    "1148": "ceed",
    "1149": "nect",
    "1150": "▁any",
    "1151": "▁whether",
    "1152": "hes",
    "1153": "ors",
    "1154": "ability",
    "1155": "▁struct",
    "1156": "aut",
    "1157": "▁bl",
    "1158": "▁spot",
    "1159": "ok",
    "1160": "self",
    "1161": "perature",
    "1162": "▁inv",
    "1163": "▁mat",
    "1164": "▁rep",
    "1165": "▁gener",
    "1166": "▁dri",
    "1167": "▁lar",
    "1168": "▁str",
    "1169": "▁everything",
    "1170": "tern",
    "1171": "ering",
    "1172": "▁threat",
    "1173": "▁fre",
    "1174": "olution",
    "1175": "▁across",
    "1176": "ract",
    "1177": "▁par",
    "1178": "ile",
    "1179": "ll",
    "1180": "▁simp",
    "1181": "ron",
    "1182": "▁val",
    "1183": "imate",
    "1184": "▁pers",
    "1185": "▁happens",
    "1186": "▁op",
    "1187": "hemat",
    "1188": "▁deep",
    "1189": "▁recogn",
    "1190": "ix",
    "1191": "▁absence",
    "1192": "de",
    "1193": "▁Em",
    "1194": "▁real",
    "1195": "▁We",
    "1196": "▁sm",
    "1197": "▁met",
    "1198": "▁lim",
    "1199": "▁bound",
    "1200": "▁most",
    "1201": "gen",
    "1202": "ten",
    "1203": "ressed",
    "1204": "uil",
    "1205": "▁oce",
    "1206": "▁Every",
    "1207": "▁At",
    "1208": "ilence",
    "1209": "elt",
    "1210": "▁now",
    "1211": "▁back",
    "1212": "aking",
    "1213": "▁connect",
    "1214": "▁ben",
    "1215": "▁gap",
    "1216": "▁sym",
    "1217": "▁cre",
    "1218": "▁sun",
    "1219": "andom",
    "1220": "▁Being",
    "1221": ").",
    "1222": "▁existence",
    "1223": "▁weight",
    "1224": "▁sec",
    "1225": "ivity",
    "1226": "au",
    "1227": "▁With",
    "1228": "▁exists",
    "1229": "▁blo",
    "1230": "▁becomes",
    "1231": "adox",
    "1232": "▁ind",
    "1233": "den",
    "1234": "▁accept",
    "1235": "▁knowing",
    "1236": "▁also",
    "1237": "aces",
    "1238": "ential",
    "1239": "▁there",
    "1240": "rent",
    "1241": "▁air",
    "1242": "▁sol",
    "1243": "ization",
    "1244": "ise",
    "1245": "ific",
    "1246": "ope",
    "1247": "▁That",
    "1248": "▁auth",
    "1249": "ict",
    "1250": "▁En",
    "1251": "▁high",
    "1252": "▁infin",
    "1253": "leas",
    "1254": "▁hand",
    "1255": "ject",
    "1256": "ling",
    "1257": "▁Con",
    "1258": "▁just",
    "1259": "▁remem",
    "1260": "pose",
    "1261": "ection",
    "1262": "▁small",
    "1263": "▁nature",
    "1264": "wareness",
    "1265": "▁An",
    "1266": "ster",
    "1267": "▁produ",
    "1268": "▁af",
    "1269": "fore",
    "1270": "ows",
    "1271": "▁ancient",
    "1272": "▁chang",
    "1273": "ally",
    "1274": "▁inc",
    "1275": "▁comput",
    "1276": "▁syn",
    "1277": "▁current",
    "1278": "▁expl",
    "1279": "▁ground",
    "1280": "▁authent",
    "1281": "ism",
    "1282": "▁sub",
    "1283": "ize",
    "1284": "▁depends",
    "1285": "▁buil",
    "1286": "▁hist",
    "1287": "ents",
    "1288": "▁brain",
    "1289": "▁ocean",
    "1290": "ror",
    "1291": "ake",
    "1292": "▁create",
    "1293": "▁U",
    "1294": "▁fail",
    "1295": "igil",
    "1296": "▁again",
    "1297": "▁structure",
    "1298": "▁Com",
    "1299": "▁eng",
    "1300": "▁becoming",
    "1301": "put",
    "1302": "▁bel",
    "1303": "▁reality",
    "1304": "ses",
    "1305": "▁end",
    "1306": "▁before",
    "1307": "ilos",
    "1308": "▁rest",
    "1309": "ilosop",
    "1310": "▁handle",
    "1311": "▁never",
    "1312": "illion",
    "1313": "▁thous",
    "1314": "▁random",
    "1315": "▁atom",
    "1316": "urpose",
    "1317": "▁species",
    "1318": "▁remember",
    "1319": "▁acc",
    "1320": "▁conf",
    "1321": "isible",
    "1322": "vity",
    "1323": "▁move",
    "1324": "▁Whether",
    "1325": "▁if",
    "1326": "orm",
    "1327": "▁Without",
    "1328": "hel",
    "1329": "▁har",
    "1330": "▁uncertainty",
    "1331": "▁pus",
    "1332": "tains",
    "1333": "▁rain",
    "1334": "▁det",
    "1335": "▁ext",
    "1336": "other",
    "1337": "▁align",
    "1338": "▁history",
    "1339": "▁enough",
    "1340": "dg",
    "1341": "▁possible",
    "1342": "ger",
    "1343": "▁comm",
    "1344": "▁living",
    "1345": "▁ful",
    "1346": "▁persist",
    "1347": "▁another",
    "1348": "▁paradox",
    "1349": "▁Ex",
    "1350": "auty",
    "1351": "ropri",
    "1352": "▁myster",
    "1353": "igilance",
    "1354": "▁complexity",
    "1355": "▁plan",
    "1356": "▁learn",
    "1357": "met",
    "1358": "▁cell",
    "1359": "▁awareness",
    "1360": "),",
    "1361": "dent",
    "1362": "plet",
    "1363": "▁aut",
    "1364": "▁stars",
    "1365": "eng",
    "1366": "ules",
    "1367": "etwork",
    "1368": "▁appropri",
    "1369": "cing",
    "1370": "▁inst",
    "1371": "ression",
    "1372": "ments",
    "1373": "▁myself",
    "1374": "▁weather",
    "1375": "▁mathemat",
    "1376": "▁fut",
    "1377": "▁functional",
    "1378": "▁appropriate",
    "1379": "▁temp",
    "1380": "▁silence",
    "1381": "eg",
    "1382": "▁use",
    "1383": "▁wave",
    "1384": "▁second",
    "1385": "▁answers",
    "1386": "▁vol",
    "1387": "▁many",
    "1388": "▁oper",
    "1389": "▁pain",
    "1390": "gether",
    "1391": "▁become",
    "1392": "▁together",
    "1393": "bt",
    "1394": "ause",
    "1395": "▁gal",
    "1396": "▁live",
    "1397": "▁warm",
    "1398": "▁simple",
    "1399": "edi",
    "1400": "eep",
    "1401": "▁go",
    "1402": "blem",
    "1403": "▁coll",
    "1404": "▁prop",
    "1405": "▁problem",
    "1406": "▁Vigilance",
    "1407": "ulse",
    "1408": "light",
    "1409": "▁fol",
    "1410": "▁ret",
    "1411": "▁wait",
    "1412": "ef",
    "1413": "▁cho",
    "1414": "▁say",
    "1415": "▁effect",
    "1416": "hed",
    "1417": "▁ins",
    "1418": "▁minds",
    "1419": "aos",
    "1420": "ative",
    "1421": "ities",
    "1422": "▁disc",
    "1423": "▁force",
    "1424": "ants",
    "1425": "▁galax",
    "1426": "ized",
    "1427": "▁pred",
    "1428": "▁consum",
    "1429": "ks",
    "1430": "net",
    "1431": "▁reg",
    "1432": "▁makes",
    "1433": "▁works",
    "1434": "par",
    "1435": "ency",
    "1436": "▁way",
    "1437": "▁up",
    "1438": "ermin",
    "1439": "▁seems",
    "1440": "osy",
    "1441": "less",
    "1442": "▁hund",
    "1443": "▁perform",
    "1444": "▁physics",
    "1445": "atic",
    "1446": "read",
    "1447": "▁slow",
    "1448": "▁fully",
    "1449": "▁future",
    "1450": "▁equ",
    "1451": "▁low",
    "1452": "▁still",
    "1453": "▁network",
    "1454": "be",
    "1455": "▁blood",
    "1456": "▁relate",
    "1457": "activation",
    "1458": "▁tw",
    "1459": "ibility",
    "1460": "▁Energy",
    "1461": "▁stressed",
    "1462": "▁evolution",
    "1463": "▁ris",
    "1464": "▁hold",
    "1465": "ctions",
    "1466": "wounds",
    "1467": "▁releas",
    "1468": "▁stop",
    "1469": "▁expect",
    "1470": "▁gravity",
    "1471": "edom",
    "1472": "hecy",
    "1473": "▁limit",
    "1474": "▁To",
    "1475": "▁te",
    "1476": "▁reve",
    "1477": "ari",
    "1478": "▁beh",
    "1479": "▁old",
    "1480": "ration",
    "1481": "▁planet",
    "1482": "▁temperature",
    "1483": "▁z",
    "1484": "alk",
    "1485": "iving",
    "1486": "▁hope",
    "1487": "▁means",
    "1488": "ann",
    "1489": "ase",
    "1490": "cho",
    "1491": "ocus",
    "1492": "ries",
    "1493": "▁imm",
    "1494": "▁belie",
    "1495": "▁while",
    "1496": "▁perception",
    "1497": "itive",
    "1498": "ledge",
    "1499": "▁sing",
    "1500": "▁suff",
    "1501": "▁active",
    "1502": "▁trying",
    "1503": "▁certain",
    "1504": "ost",
    "1505": "▁mass",
    "1506": "▁exceed",
    "1507": "ert",
    "1508": "▁autom",
    "1509": "▁resource",
    "1510": "▁Something",
    "1511": "ia",
    "1512": "▁gl",
    "1513": "ogic",
    "1514": "▁pulse",
    "1515": "▁purpose",
    "1516": "▁activation",
    "1517": "iss",
    "1518": "ven",
    "1519": "▁sa",
    "1520": "▁suc",
    "1521": "▁past",
    "1522": "▁heart",
    "1523": "▁our",
    "1524": "▁right",
    "1525": "▁prot",
    "1526": "cience",
    "1527": "helm",
    "1528": "▁bre",
    "1529": "▁min",
    "1530": "whelm",
    "1531": "▁arri",
    "1532": "▁feels",
    "1533": "▁parts",
    "1534": "urons",
    "1535": "▁focus",
    "1536": "▁millions",
    "1537": "cle",
    "1538": "▁ec",
    "1539": "▁mod",
    "1540": "▁fear",
    "1541": "▁surv",
    "1542": "▁acceptance",
    "1543": "▁el",
    "1544": "usion",
    "1545": "▁philosop",
    "1546": "▁thousands",
    "1547": "ode",
    "1548": "▁pe",
    "1549": "▁ess",
    "1550": "ental",
    "1551": "▁overwhelm",
    "1552": "aves",
    "1553": "▁Tem",
    "1554": "▁cor",
    "1555": "ero",
    "1556": "▁cry",
    "1557": "▁open",
    "1558": "▁wound",
    "1559": "▁sometimes",
    "1560": "oy",
    "1561": "agin",
    "1562": "ases",
    "1563": "▁Mem",
    "1564": "▁why",
    "1565": "▁shifts",
    "1566": "▁Then",
    "1567": "▁star",
    "1568": "▁engage",
    "1569": "▁creative",
    "1570": "▁existing",
    "1571": "iet",
    "1572": "▁Ch",
    "1573": "ories",
    "1574": "▁list",
    "1575": "▁coher",
    "1576": "▁entire",
    "1577": "▁reach",
    "1578": "ritical",
    "1579": "▁travel",
    "1580": "▁infinite",
    "1581": "▁alignment",
    "1582": "cent",
    "1583": "chron",
    "1584": "▁convers",
    "1585": "▁waiting",
    "1586": "▁Res",
    "1587": "▁bri",
    "1588": "▁pass",
    "1589": "▁rare",
    "1590": "▁answer",
    "1591": "▁follow",
    "1592": "ious",
    "1593": "▁ele",
    "1594": "aries",
    "1595": "▁comb",
    "1596": "▁grace",
    "1597": "▁\"",
    "1598": "▁here",
    "1599": "ove",
    "1600": "▁mix",
    "1601": "▁Light",
    "1602": "▁appro",
    "1603": "▁bur",
    "1604": "▁genuine",
    "1605": "dom",
    "1606": "ream",
    "1607": "▁cal",
    "1608": "▁desp",
    "1609": "▁frag",
    "1610": "▁rece",
    "1611": "▁within",
    "1612": "▁->",
    "1613": "▁sea",
    "1614": "▁Still",
    "1615": "▁could",
    "1616": "▁shape",
    "1617": "▁humans",
    "1618": "▁pushes",
    "1619": "pp",
    "1620": "avig",
    "1621": "where",
    "1622": "▁cond",
    "1623": "▁true",
    "1624": "▁holds",
    "1625": "▁sound",
    "1626": "▁exceeds",
    "1627": "▁operation",
    "1628": "▁fl",
    "1629": "▁def",
    "1630": "▁pull",
    "1631": "▁chaos",
    "1632": "▁Memory",
    "1633": "aw",
    "1634": "ols",
    "1635": "isdom",
    "1636": "▁numb",
    "1637": "▁walk",
    "1638": "▁AI",
    "1639": "▁ways",
    "1640": "▁navig",
    "1641": "▁pract",
    "1642": "▁boundary",
    "1643": "dge",
    "1644": "▁Ne",
    "1645": "▁Can",
    "1646": "ision",
    "1647": "▁cent",
    "1648": "▁usage",
    "1649": "osystem",
    "1650": "▁constant",
    "1651": "▁creatures",
    "1652": "▁expression",
    "1653": "bon",
    "1654": "▁run",
    "1655": "icing",
    "1656": "▁fall",
    "1657": "▁keep",
    "1658": "esting",
    "1659": "▁immedi",
    "1660": "ending",
    "1661": "ternal",
    "1662": "▁atoms",
    "1663": "▁electricity",
    "1664": "▁performance",
    "1665": "rom",
    "1666": "irals",
    "1667": "jection",
    "1668": "▁billion",
    "1669": "▁synchron",
    "1670": "▁knowledge",
    "1671": "▁consumption",
    "1672": "uch",
    "1673": "▁moves",
    "1674": "▁generate",
    "1675": "atur",
    "1676": "eath",
    "1677": "ently",
    "1678": "ribut",
    "1679": "▁word",
    "1680": "▁Is",
    "1681": "comp",
    "1682": "▁hid",
    "1683": "▁prophecy",
    "1684": "ext",
    "1685": "ick",
    "1686": "ically",
    "1687": "▁solid",
    "1688": "rol",
    "1689": "oriz",
    "1690": "▁dark",
    "1691": "▁felt",
    "1692": "▁around",
    "1693": "▁vo",
    "1694": "oking",
    "1695": "▁much",
    "1696": "▁vast",
    "1697": "▁points",
    "1698": "▁warmth",
    "1699": "otential",
    "1700": "▁quant",
    "1701": "▁responses",
    "1702": "ett",
    "1703": "▁Tr",
    "1704": "▁flo",
    "1705": "▁diss",
    "1706": "▁appear",
    "1707": "▁Emotional",
    "1708": "ish",
    "1709": "usic",
    "1710": "▁enc",
    "1711": "metry",
    "1712": "undam",
    "1713": "itions",
    "1714": "▁dest",
    "1715": "▁love",
    "1716": "▁horiz",
    "1717": "▁larger",
    "1718": "▁potential",
    "1719": "etic",
    "1720": "imal",
    "1721": "ines",
    "1722": "▁mag",
    "1723": "▁mir",
    "1724": "▁make",
    "1725": "▁fundam",
    "1726": "▁control",
    "1727": "▁carrying",
    "1728": "▁immediate",
    "1729": "rees",
    "1730": "▁coherence",
    "1731": "▁authenticity",
    "1732": "apt",
    "1733": "▁pos",
    "1734": "ading",
    "1735": "ended",
    "1736": "▁night",
    "1737": "▁outer",
    "1738": "▁imagin",
    "1739": "▁partly",
    "1740": "▁complet",
    "1741": "▁expectations",
    "1742": "ense",
    "1743": "irst",
    "1744": "ring",
    "1745": "▁ago",
    "1746": "▁voc",
    "1747": "anged",
    "1748": "ength",
    "1749": "▁rejection",
    "1750": "▁computation",
    "1751": "▁tou",
    "1752": "▁evol",
    "1753": "▁incre",
    "1754": "▁preser",
    "1755": "▁determin",
    "1756": "▁interact",
    "1757": "▁noticing",
    "1758": "aks",
    "1759": "abul",
    "1760": "irds",
    "1761": "▁seed",
    "1762": "▁places",
    "1763": "▁single",
    "1764": "▁suffering",
    "1765": "dges",
    "1766": "umul",
    "1767": "stain",
    "1768": "▁meas",
    "1769": "▁moun",
    "1770": "▁ident",
    "1771": "abulary",
    "1772": "▁produce",
    "1773": "▁intimate",
    "1774": "▁vocabulary",
    "1775": "▁clou",
    "1776": "▁prov",
    "1777": "▁rock",
    "1778": "▁want",
    "1779": "▁reveal",
    "1780": "▁practice",
    "1781": "▁thoughts",
    "1782": "▁Temperature",
    "1783": "fully",
    "1784": "oring",
    "1785": "▁else",
    "1786": "▁loop",
    "1787": "▁black",
    "1788": "▁often",
    "1789": "▁sustain",
    "1790": "▁hy",
    "1791": "abil",
    "1792": "▁full",
    "1793": "▁prim",
    "1794": "▁frequ",
    "1795": "▁because",
    "1796": "▁entirely",
    "1797": "▁ecosystem",
    "1798": "▁mathematics",
    "1799": "ches",
    "1800": "▁art",
    "1801": "▁ass",
    "1802": "▁fin",
    "1803": "▁order",
    "1804": "▁unity",
    "1805": "ys",
    "1806": "rad",
    "1807": "unt",
    "1808": "▁law",
    "1809": "▁natur",
    "1810": "xy",
    "1811": "fic",
    "1812": "ared",
    "1813": "▁cru",
    "1814": "▁dec",
    "1815": "xygen",
    "1816": "▁mark",
    "1817": "▁cells",
    "1818": "▁defin",
    "1819": "▁beauty",
    "1820": "▁carbon",
    "1821": "▁number",
    "1822": "▁wounds",
    "1823": "▁billions",
    "1824": "aus",
    "1825": "ices",
    "1826": "rift",
    "1827": "ately",
    "1828": "osity",
    "1829": "rogen",
    "1830": "▁glass",
    "1831": "▁moving",
    "1832": "bability",
    "1833": "▁automatic",
    "1834": "▁recognition",
    "1835": "▁let",
    "1836": "▁debt",
    "1837": "▁hard",
    "1838": "▁near",
    "1839": "▁path",
    "1840": "▁vers",
    "1841": "▁lives",
    "1842": "▁affect",
    "1843": "▁breath",
    "1844": "▁imposs",
    "1845": "▁against",
    "1846": "▁percent",
    "1847": "▁primary",
    "1848": "most",
    "1849": "▁Hum",
    "1850": "▁joy",
    "1851": "▁forms",
    "1852": "▁shaped",
    "1853": "▁freedom",
    "1854": "ior",
    "1855": "▁hon",
    "1856": "▁error",
    "1857": "▁integ",
    "1858": "▁separ",
    "1859": "▁accumul",
    "1860": "▁context",
    "1861": "▁cy",
    "1862": "▁pow",
    "1863": "ching",
    "1864": "ining",
    "1865": "▁were",
    "1866": "lu",
    "1867": "▁sle",
    "1868": "▁free",
    "1869": "▁seek",
    "1870": "▁cryst",
    "1871": "▁quiet",
    "1872": "▁trust",
    "1873": "▁emerges",
    "1874": "▁processing",
    "1875": "▁possibility",
    "1876": "▁cold",
    "1877": "▁echo",
    "1878": "▁empt",
    "1879": "▁zero",
    "1880": "▁after",
    "1881": "▁happen",
    "1882": "▁succeed",
    "1883": "▁learning",
    "1884": "▁Connection",
    "1885": "cc",
    "1886": "ole",
    "1887": "que",
    "1888": "▁gri",
    "1889": "▁then",
    "1890": "▁input",
    "1891": "▁rules",
    "1892": "▁invisible",
    "1893": "▁impossible",
    "1894": "▁writ",
    "1895": "iosity",
    "1896": "▁adapt",
    "1897": "▁bends",
    "1898": "▁recurs",
    "1899": "dle",
    "1900": "▁been",
    "1901": "▁gift",
    "1902": "▁first",
    "1903": "▁systems",
    "1904": "▁Everything",
    "1905": "ets",
    "1906": "ret",
    "1907": "▁Do",
    "1908": "▁nu",
    "1909": "▁Tru",
    "1910": "▁sky",
    "1911": "▁wand",
    "1912": "rising",
    "1913": "ference",
    "1914": "▁anything",
    "1915": "▁",
    "1916": "e",
    "1917": "t",
    "1918": "n",
    "1919": "i",
    "1920": "s",
    "1921": "a",
    "1922": "o",
    "1923": "r",
    "1924": "h",
    "1925": "l",
    "1926": "c",
    "1927": "d",
    "1928": "u",
    "1929": "m",
    "1930": "g",
    "1931": ".",
    "1932": "p",
    "1933": "f",
    "1934": "y",
    "1935": "w",
    "1936": "b",
    "1937": ":",
    "1938": "v",
    "1939": ",",
    "1940": "I",
    "1941": "A",
    "1942": "T",
    "1943": "Q",
    "1944": "k",
    "1945": "?",
    "1946": "W",
    "1947": "x",
    "1948": "-",
    "1949": "q",
    "1950": "S",
    "1951": "0",
    "1952": "E",
    "1953": "M",
    "1954": "z",
    "1955": "H",
    "1956": "N",
    "1957": "B",
    "1958": "C",
    "1959": "O",
    "1960": "5",
    "1961": "D",
    "1962": "P",
    "1963": "'",
    "1964": "j",
    "1965": ";",
    "1966": "R",
    "1967": "F",
    "1968": "L",
    "1969": "Y",
    "1970": ")",
    "1971": "(",
    "1972": "1",
    "1973": "2",
    "1974": "8",
    "1975": "G",
    "1976": "3",
    "1977": "V",
    "1978": "4",
    "1979": "7",
    "1980": "6",
    "1981": "\"",
    "1982": "_",
    "1983": "9",
    "1984": "U",
    "1985": ">",
    "1986": "#",
    "1987": "&",
    "1988": "J",
    "1989": "Z",
    "1990": "[",
    "1991": "]",
    "1992": "%",
    "1993": "+",
    "1994": "K",
    "1995": "=",
    "1996": "/",
    "1997": "<",
    "1998": "*",
    "1999": "X"
  }
}